<unk>	0
<s>	0
</s>	0
▁the	-2.90602
▁,	-3.20121
▁.	-3.25535
▁of	-3.36017
▁and	-3.66167
▁to	-3.78642
▁in	-4.13573
▁'	-4.4635
▁a	-4.48654
s	-4.69199
▁for	-4.75011
▁that	-4.83738
▁on	-4.87028
-	-4.89183
▁(	-4.93344
▁)	-4.93482
▁I	-5.1094
▁The	-5.10989
▁;	-5.18396
▁is	-5.24147
▁/	-5.24152
▁with	-5.31582
▁be	-5.3625
▁by	-5.36449
▁you	-5.40704
▁	-5.44851
▁?	-5.48233
▁as	-5.49407
▁it	-5.64675
▁was	-5.65395
.	-5.6716
▁-	-5.69556
▁are	-5.81494
▁:	-5.86501
▁at	-5.89282
▁&	-5.90233
▁or	-5.92269
▁from	-5.94247
▁not	-5.9486
▁its	-5.95949
▁have	-5.97463
t	-6.0373
▁this	-6.04096
▁United	-6.07883
▁an	-6.15292
▁which	-6.19945
▁all	-6.23971
▁their	-6.25863
▁Nations	-6.26316
▁In	-6.31782
▁has	-6.33303
▁Committee	-6.38404
▁will	-6.39078
▁A	-6.39259
▁had	-6.42693
▁been	-6.42946
▁!	-6.4417
▁were	-6.46068
▁It	-6.47022
▁quot	-6.54809
m	-6.56059
▁also	-6.57123
▁States	-6.57802
▁other	-6.58877
▁s	-6.6136
▁international	-6.61436
▁should	-6.63039
▁...	-6.63542
▁would	-6.64662
▁You	-6.6522
▁we	-6.65812
▁me	-6.68959
▁apos	-6.72477
ing	-6.76193
▁he	-6.77237
▁can	-6.77347
▁they	-6.77408
▁1	-6.80065
re	-6.80686
▁countries	-6.81394
▁Council	-6.82493
▁development	-6.82955
▁rights	-6.8455
▁report	-6.86081
▁one	-6.87379
▁out	-6.89467
▁under	-6.89918
▁his	-6.90146
▁do	-6.90404
▁We	-6.9163
▁such	-6.92689
▁work	-6.93609
▁your	-6.96542
▁my	-6.97492
▁but	-6.99695
▁including	-7.00835
▁who	-7.02568
▁resolution	-7.03316
▁information	-7.03684
▁human	-7.04209
▁No	-7.04568
▁about	-7.05378
▁more	-7.05814
▁2	-7.06577
▁right	-7.06858
▁General	-7.07137
▁know	-7.08026
▁He	-7.08112
▁no	-7.08212
▁what	-7.09214
▁there	-7.09614
▁women	-7.10061
▁session	-7.10279
▁national	-7.10499
▁into	-7.11575
▁so	-7.12533
▁those	-7.13067
▁State	-7.13261
▁made	-7.13335
▁Assembly	-7.13646
d	-7.13791
▁up	-7.1444
▁Convention	-7.14552
▁support	-7.16161
▁them	-7.1664
▁any	-7.21105
▁time	-7.21797
▁What	-7.22156
▁if	-7.22566
▁And	-7.22944
▁This	-7.23305
▁well	-7.25778
▁3	-7.25958
General	-7.26377
▁implementation	-7.26631
▁Secretary	-7.27539
▁Government	-7.28172
▁between	-7.28453
ed	-7.28636
▁like	-7.28715
▁International	-7.29196
▁shall	-7.29295
▁new	-7.29706
▁activities	-7.30037
▁against	-7.30406
▁Mr	-7.30698
▁Commission	-7.31033
▁through	-7.32068
▁her	-7.32187
▁may	-7.32899
▁need	-7.33677
▁could	-7.33964
▁people	-7.35184
▁C	-7.35228
▁him	-7.35708
▁just	-7.36603
▁some	-7.36739
▁these	-7.37104
▁system	-7.3785
▁meeting	-7.38008
▁law	-7.38515
▁two	-7.39483
▁only	-7.41549
▁per	-7.41746
▁don	-7.41907
▁when	-7.44064
▁take	-7.44807
▁than	-7.44842
▁country	-7.45256
▁5	-7.4734
ll	-7.48307
▁see	-7.48482
▁measures	-7.49498
▁4	-7.50117
▁our	-7.50622
▁over	-7.51349
▁number	-7.51703
▁organizations	-7.53901
▁Conference	-7.54105
▁first	-7.54766
▁use	-7.55265
▁6	-7.56016
▁paragraph	-7.56151
▁here	-7.56191
▁children	-7.56643
▁draft	-7.56687
▁Security	-7.57072
▁security	-7.57394
▁cooperation	-7.57649
▁That	-7.57823
▁Republic	-7.57939
▁programme	-7.59379
▁non	-7.59381
ly	-7.59452
▁order	-7.61035
▁10	-7.61181
▁years	-7.61244
▁$	-7.61812
▁must	-7.62339
▁Group	-7.62505
▁article	-7.6393
▁efforts	-7.64023
▁Development	-7.6495
▁Rights	-7.65001
▁now	-7.65783
▁resources	-7.65983
▁said	-7.66165
▁get	-7.66377
▁cent	-7.66609
▁make	-7.66946
▁where	-7.67207
▁provide	-7.6752
▁she	-7.67552
▁b	-7.68556
▁7	-7.68845
▁process	-7.69441
▁did	-7.69977
▁economic	-7.70331
▁issues	-7.70361
▁further	-7.70689
▁regional	-7.70977
▁go	-7.71472
▁public	-7.71581
▁members	-7.71588
▁ensure	-7.7253
▁social	-7.72561
▁being	-7.73091
▁S	-7.73478
▁assistance	-7.73491
▁within	-7.73831
ve	-7.73896
▁provided	-7.74282
▁decision	-7.75537
▁Human	-7.75654
▁services	-7.76696
▁E	-7.7677
▁during	-7.77324
▁particular	-7.77432
▁financial	-7.7787
▁They	-7.77989
▁[	-7.78102
▁]	-7.78206
▁Special	-7.78391
▁before	-7.78923
▁But	-7.79952
▁party	-7.80413
▁8	-7.80518
e	-7.82901
▁following	-7.8305
▁us	-7.83508
▁part	-7.83848
▁relevant	-7.8419
▁want	-7.84459
▁Office	-7.84641
▁good	-7.84983
▁adopted	-7.8501
▁period	-7.85437
▁As	-7.86124
▁So	-7.8616
▁held	-7.86334
▁level	-7.86396
▁At	-7.86571
▁way	-7.86742
▁December	-7.86841
▁taken	-7.87805
▁most	-7.87864
▁areas	-7.88009
▁developing	-7.88036
▁programmes	-7.88264
▁9	-7.88833
▁Oh	-7.89264
▁think	-7.89305
▁health	-7.89736
▁after	-7.90682
▁persons	-7.90716
▁There	-7.90877
▁world	-7.91172
▁15	-7.91186
▁both	-7.91293
▁how	-7.91657
▁legal	-7.91783
▁management	-7.92123
▁12	-7.92719
▁same	-7.92726
▁many	-7.94579
▁situation	-7.94711
▁year	-7.94852
▁agenda	-7.94907
▁got	-7.94939
▁education	-7.95142
▁To	-7.95453
▁regard	-7.95879
▁c	-7.96282
▁staff	-7.965
▁protection	-7.96527
▁review	-7.9653
▁President	-7.967
▁political	-7.9675
▁action	-7.97144
▁peace	-7.97809
▁important	-7.97857
▁accordance	-7.98064
▁used	-7.98368
▁three	-7.9866
▁Working	-7.98793
▁case	-7.99343
▁policy	-7.9975
▁among	-7.99785
▁For	-7.99849
.1	-7.99978
▁parties	-8.00114
▁11	-8.00131
▁Programme	-8.00132
▁Yeah	-8.00194
▁She	-8.00233
▁back	-8.00451
▁Parties	-8.00557
▁training	-8.00726
▁All	-8.01045
▁respect	-8.0108
▁special	-8.01098
▁L	-8.01351
▁community	-8.01887
▁If	-8.02458
▁place	-8.02564
▁18	-8.03324
▁continue	-8.03469
th	-8.03723
▁2005	-8.04154
▁then	-8.04679
▁set	-8.05025
▁Organization	-8.05039
▁data	-8.05186
▁established	-8.05268
▁very	-8.054
▁B	-8.05495
▁recommendations	-8.06162
▁access	-8.06184
▁capacity	-8.06573
▁working	-8.06746
▁without	-8.07071
▁June	-8.07216
▁present	-8.07298
▁20	-8.07508
y	-8.07785
▁reports	-8.08915
▁On	-8.09012
▁14	-8.09128
▁possible	-8.09641
▁2004	-8.09826
▁item	-8.10164
▁because	-8.10431
▁each	-8.10532
▁World	-8.10581
▁2006	-8.10601
▁effective	-8.10617
▁role	-8.10642
▁view	-8.11265
▁Well	-8.11298
▁related	-8.11877
▁life	-8.12164
▁2000	-8.12636
▁European	-8.12756
▁since	-8.13013
▁going	-8.13366
▁provisions	-8.14041
▁Member	-8.14233
▁30	-8.14591
▁progress	-8.14727
▁basis	-8.1476
▁13	-8.14829
▁necessary	-8.15181
▁end	-8.15246
▁Economic	-8.15292
▁d	-8.15306
▁2002	-8.15459
▁2003	-8.15562
▁National	-8.15928
▁technical	-8.16292
▁full	-8.16359
er	-8.16473
▁2001	-8.17036
▁come	-8.17245
▁appropriate	-8.1762
▁cases	-8.17762
▁16	-8.17843
▁Africa	-8.18001
▁while	-8.18418
▁P	-8.19065
▁God	-8.19111
▁group	-8.19443
▁Social	-8.20125
▁New	-8.2057
▁general	-8.20781
▁even	-8.20936
▁available	-8.21027
▁2007	-8.21246
▁million	-8.21313
▁document	-8.21406
▁May	-8.21914
▁say	-8.22021
▁July	-8.22256
▁2008	-8.22328
a	-8.22423
▁area	-8.22626
▁17	-8.22807
▁groups	-8.22839
▁still	-8.22999
▁down	-8.23017
▁help	-8.23108
▁violence	-8.23459
▁global	-8.23475
▁upon	-8.23692
▁long	-8.24503
▁institutions	-8.24857
▁consideration	-8.25391
▁high	-8.25553
▁considered	-8.25625
▁e	-8.25727
▁Article	-8.25953
▁Board	-8.26428
▁based	-8.26466
▁include	-8.26472
▁budget	-8.26756
▁gonna	-8.2712
▁local	-8.2719
▁nuclear	-8.27781
▁region	-8.27835
▁September	-8.28146
▁October	-8.28503
▁requirements	-8.28567
▁November	-8.28689
▁meetings	-8.28758
▁account	-8.288
▁does	-8.29064
▁gender	-8.29133
▁de	-8.29761
▁needs	-8.30015
▁concerned	-8.30061
▁means	-8.30149
▁trade	-8.30777
▁issue	-8.31116
▁African	-8.31581
▁How	-8.3195
▁policies	-8.31952
▁proposed	-8.32305
▁give	-8.32963
▁*	-8.33089
▁given	-8.3348
n	-8.33632
▁delegation	-8.33855
▁Court	-8.34768
▁submitted	-8.34846
▁family	-8.34891
▁noted	-8.35096
▁March	-8.356
▁authorities	-8.3643
▁bodies	-8.36434
▁project	-8.36671
▁required	-8.36742
▁framework	-8.36892
▁specific	-8.36957
▁21	-8.37054
▁control	-8.37945
▁above	-8.38128
▁population	-8.38145
▁future	-8.38212
▁second	-8.3832
▁day	-8.38403
▁increase	-8.3843
▁own	-8.38693
▁much	-8.38709
S	-8.38721
▁man	-8.38988
▁police	-8.39127
▁child	-8.39171
▁particularly	-8.39303
▁developed	-8.39349
▁%	-8.40073
▁plan	-8.40274
▁continued	-8.40359
▁last	-8.4054
▁However	-8.40626
▁19	-8.40647
▁participation	-8.41653
▁D	-8.41686
▁Law	-8.42094
▁sector	-8.42247
▁importance	-8.42277
▁society	-8.42324
▁various	-8.42409
▁concerning	-8.42484
▁field	-8.42693
▁conditions	-8.43021
▁different	-8.43167
▁note	-8.43197
▁current	-8.43479
▁=	-8.43529
▁address	-8.43616
▁April	-8.43617
▁might	-8.43828
▁promote	-8.44056
▁2009	-8.44204
▁Union	-8.44558
▁too	-8.44636
▁p	-8.44649
▁Yes	-8.45075
▁Protocol	-8.45172
▁Fund	-8.45519
▁military	-8.45667
▁addition	-8.45673
▁Secretariat	-8.45699
▁force	-8.4581
▁1999	-8.45971
▁25	-8.46033
▁better	-8.46101
▁agreed	-8.46102
▁question	-8.46114
▁January	-8.46327
▁secretariat	-8.4672
▁Women	-8.46877
▁change	-8.46935
▁conflict	-8.47337
▁II	-8.47421
▁member	-8.47604
▁22	-8.47678
▁Action	-8.48113
▁sustainable	-8.48119
▁didn	-8.48119
▁levels	-8.48172
▁water	-8.48236
▁Act	-8.48366
▁person	-8.48556
▁31	-8.48585
▁requested	-8.48724
▁humanitarian	-8.49022
▁Department	-8.49084
▁Report	-8.49343
▁never	-8.49477
▁additional	-8.49536
▁My	-8.50026
▁whether	-8.50405
▁para	-8.5043
▁civil	-8.50677
▁off	-8.50716
▁24	-8.51034
up	-8.51318
▁Add	-8.51588
▁representative	-8.51822
▁really	-8.51858
▁agencies	-8.51868
▁poverty	-8.52155
▁23	-8.52555
▁Do	-8.52876
▁Why	-8.52934
▁South	-8.53037
▁care	-8.53302
▁annex	-8.53369
▁context	-8.53415
▁major	-8.5359
▁attention	-8.53609
▁received	-8.53638
▁something	-8.53638
▁total	-8.5378
▁contained	-8.53785
▁operations	-8.54066
▁representatives	-8.54167
▁Rapporteur	-8.54364
▁projects	-8.54736
▁men	-8.54929
▁consider	-8.54956
▁private	-8.54982
▁tell	-8.54992
▁towards	-8.55233
▁another	-8.55348
▁These	-8.55545
▁Mission	-8.55612
▁legislation	-8.55645
▁i	-8.55714
▁status	-8.55717
▁Governments	-8.55773
▁discrimination	-8.55891
▁request	-8.55904
▁2010	-8.56415
▁resolutions	-8.56573
▁called	-8.56611
▁impact	-8.56829
▁approach	-8.56918
▁already	-8.56976
▁environmental	-8.5704
▁put	-8.57315
▁found	-8.57559
▁little	-8.57578
▁concern	-8.57604
▁weapons	-8.57778
▁every	-8.5798
▁organization	-8.58209
▁Okay	-8.58246
▁systems	-8.58263
▁Hey	-8.58285
▁took	-8.58317
▁taking	-8.58562
▁mean	-8.58568
▁together	-8.58872
▁fact	-8.58903
▁Declaration	-8.59143
▁call	-8.59159
▁High	-8.59327
▁result	-8.59476
▁find	-8.59701
▁rules	-8.6009
es	-8.60118
▁1998	-8.60563
▁subject	-8.61239
▁results	-8.61379
▁relating	-8.61476
▁With	-8.61617
▁example	-8.61691
▁Affairs	-8.61758
o	-8.61772
▁mandate	-8.61863
▁included	-8.61985
▁Party	-8.62022
▁monitoring	-8.62191
.2	-8.62263
▁establishment	-8.62423
▁therefore	-8.62446
▁best	-8.62462
▁statement	-8.62839
▁provision	-8.62874
▁next	-8.62922
▁look	-8.62992
▁standards	-8.63015
▁Ministry	-8.63095
▁again	-8.63298
▁least	-8.63667
▁service	-8.63676
▁existing	-8.64042
▁small	-8.64235
▁criminal	-8.64634
▁Executive	-8.64695
▁procedures	-8.64717
▁August	-8.65157
▁Allah	-8.65262
▁February	-8.65311
▁let	-8.65441
▁especially	-8.65766
▁expressed	-8.65891
▁environment	-8.65931
▁land	-8.65944
▁M	-8.66924
▁justice	-8.67102
▁inter	-8.67127
▁doing	-8.67302
▁26	-8.67432
▁why	-8.67538
▁addressed	-8.67753
▁When	-8.67912
▁costs	-8.68006
▁done	-8.68044
▁decided	-8.68205
▁government	-8.68206
▁matter	-8.68744
▁28	-8.68813
▁reporting	-8.69
r	-8.69067
▁four	-8.6916
▁terms	-8.69385
▁27	-8.69454
▁One	-8.69553
▁am	-8.69619
▁due	-8.6963
▁several	-8.69747
▁domestic	-8.69806
▁follow	-8.69865
▁Let	-8.6987
▁His	-8.69993
▁great	-8.7006
▁five	-8.70269
▁responsibility	-8.70444
▁regarding	-8.70529
▁fully	-8.70752
▁entitled	-8.70836
▁2011	-8.70877
▁F	-8.70981
▁principles	-8.71113
▁problems	-8.71326
▁THE	-8.7136
▁believe	-8.71478
▁course	-8.71523
▁1995	-8.71767
▁comprehensive	-8.7215
▁meet	-8.72285
▁increased	-8.72386
.3	-8.72623
▁Ms	-8.73161
▁home	-8.73249
▁implement	-8.73431
▁1997	-8.73673
▁technology	-8.73845
▁R	-8.73918
▁personnel	-8.7409
▁coordination	-8.7409
▁procedure	-8.74131
▁agreement	-8.74267
▁around	-8.74409
▁obligations	-8.7491
▁Russian	-8.75157
▁key	-8.75431
▁adoption	-8.75472
in	-8.75551
▁decisions	-8.7586
▁main	-8.75928
▁practices	-8.75948
▁Palestinian	-8.76186
▁transport	-8.76389
▁application	-8.76414
g	-8.76512
▁risk	-8.76557
▁armed	-8.76582
▁America	-8.76662
▁rule	-8.76697
▁age	-8.76777
▁problem	-8.76811
▁light	-8.77019
▁mechanisms	-8.77175
▁improve	-8.7733
▁until	-8.77479
▁response	-8.77537
▁strengthen	-8.77615
▁assessment	-8.77653
▁documents	-8.77849
▁--	-8.7802
▁business	-8.7824
▁food	-8.78248
▁reported	-8.78308
▁UN	-8.78351
▁Don	-8.7849
▁1994	-8.78596
▁1996	-8.78774
▁thing	-8.78828
▁name	-8.7922
▁29	-8.793
▁50	-8.79318
i	-8.7933
▁cost	-8.79711
▁Come	-8.79758
▁indigenous	-8.79822
▁yet	-8.80008
governmental	-8.801
▁common	-8.80136
▁love	-8.80349
▁Annex	-8.80417
▁become	-8.80552
▁recent	-8.80611
▁third	-8.80893
al	-8.81129
▁victims	-8.81149
▁OF	-8.81177
▁2012	-8.81267
▁Representative	-8.81268
▁Europe	-8.81323
▁providing	-8.81585
▁energy	-8.82108
▁contributions	-8.82511
▁clear	-8.82691
▁Arab	-8.82749
▁provides	-8.82954
▁having	-8.83
.4	-8.83177
▁school	-8.8338
▁production	-8.83898
▁An	-8.84056
▁point	-8.84313
▁position	-8.84329
▁however	-8.84384
A	-8.84493
▁Israel	-8.84566
▁funds	-8.84584
▁post	-8.84593
▁amount	-8.84619
▁equipment	-8.85039
▁away	-8.85106
▁line	-8.85309
▁needed	-8.85665
▁practice	-8.85814
▁significant	-8.85949
▁develop	-8.86018
▁free	-8.86037
▁consultations	-8.86327
▁office	-8.86337
▁things	-8.86453
▁certain	-8.86624
▁list	-8.86872
▁Other	-8.8734
▁body	-8.8755
▁Where	-8.87582
▁Advisory	-8.87598
based	-8.87655
▁O	-8.87692
▁able	-8.87706
▁days	-8.88374
▁G	-8.88384
▁text	-8.88456
▁lack	-8.88474
▁date	-8.8848
▁challenges	-8.88515
▁open	-8.88575
▁administrative	-8.8863
▁V	-8.88679
▁living	-8.887
▁commitment	-8.89011
▁Now	-8.89029
▁mission	-8.89127
▁matters	-8.89165
▁regular	-8.89306
▁research	-8.89513
▁space	-8.89785
▁strengthening	-8.89881
▁section	-8.89964
▁involved	-8.89969
▁Geneva	-8.90025
▁Chairman	-8.90138
▁actions	-8.90139
▁Information	-8.90225
▁WP	-8.90258
▁UNDP	-8.90382
▁Service	-8.90493
▁always	-8.90599
▁past	-8.90636
2	-8.90737
▁discussion	-8.90746
▁carried	-8.9075
▁early	-8.90823
▁re	-8.90889
▁official	-8.90893
▁treatment	-8.90901
▁establish	-8.90934
▁serious	-8.91096
▁While	-8.91296
▁responsible	-8.91411
▁East	-8.91411
▁Iraq	-8.91535
▁acts	-8.91656
▁large	-8.91733
▁H	-8.91855
▁60	-8.92029
▁prepared	-8.92039
▁reform	-8.92066
▁cultural	-8.92067
▁Centre	-8.92267
▁wish	-8.92407
▁_	-8.92462
▁behalf	-8.9276
▁individual	-8.92956
▁strategy	-8.9298
▁thought	-8.93005
▁proposal	-8.93068
▁form	-8.93118
▁crime	-8.93166
▁planning	-8.93188
▁Permanent	-8.933
▁N	-8.93443
▁power	-8.93455
term	-8.93564
building	-8.93733
▁initiatives	-8.93775
▁purpose	-8.94007
▁approved	-8.94378
▁months	-8.94395
▁forces	-8.94443
▁whole	-8.94632
▁Minister	-8.94669
▁♪	-8.94829
▁far	-8.94835
▁disarmament	-8.9494
▁employment	-8.95093
▁dialogue	-8.95258
▁leave	-8.95324
▁study	-8.95482
▁growth	-8.95542
▁today	-8.95741
▁market	-8.95845
▁prevention	-8.9592
▁performance	-8.9595
▁focus	-8.95971
▁recommended	-8.96109
▁Kingdom	-8.96144
▁quality	-8.96322
▁Central	-8.96379
▁making	-8.96383
▁death	-8.965
▁Code	-8.96662
▁knowledge	-8.96736
▁bring	-8.96756
▁priority	-8.96886
▁left	-8.96935
▁interest	-8.96983
▁prevent	-8.9703
▁organized	-8.97044
▁equality	-8.97413
▁China	-8.97425
▁rate	-8.97528
▁instruments	-8.97808
▁terrorism	-8.9785
▁promotion	-8.97862
▁Agenda	-8.97984
▁peacekeeping	-8.98806
▁peoples	-8.98848
▁committed	-8.99009
▁2013	-8.99035
▁state	-8.99084
I	-8.99119
▁Meeting	-8.99282
▁Director	-8.99363
▁often	-8.99416
▁proposals	-8.99646
▁dated	-8.9965
▁HIV	-8.99705
▁less	-8.99716
▁informed	-8.9991
▁night	-9.00004
▁reference	-9.00021
▁war	-9.00111
▁Federation	-9.00117
▁Who	-9.00274
▁below	-9.00356
▁authority	-9.00445
▁agreements	-9.00462
▁keep	-9.00658
▁annual	-9.00697
▁1993	-9.00698
▁few	-9.00738
▁violations	-9.00788
▁un	-9.0091
▁previous	-9.01041
▁Agreement	-9.0113
▁expected	-9.01144
▁kind	-9.01271
▁told	-9.01321
▁trafficking	-9.01409
▁self	-9.01465
.5	-9.01531
▁principle	-9.01655
▁foreign	-9.01657
▁issued	-9.01718
▁Covenant	-9.01775
▁anything	-9.01884
▁Just	-9.01892
▁property	-9.02031
▁others	-9.02105
▁later	-9.02117
▁treaty	-9.02118
▁arms	-9.02134
▁See	-9.02198
▁ever	-9.02388
▁sure	-9.02482
▁requests	-9.02554
▁Commissioner	-9.02644
▁York	-9.02689
▁Are	-9.02715
▁questions	-9.02724
▁Not	-9.02749
▁Criminal	-9.02824
▁biennium	-9.02859
▁equal	-9.02871
▁six	-9.02895
▁greater	-9.02898
▁Division	-9.02969
▁girls	-9.03202
▁objectives	-9.03272
▁joint	-9.03363
▁funding	-9.03409
▁III	-9.03486
▁During	-9.03643
▁reduction	-9.03689
▁okay	-9.03993
▁money	-9.04005
▁ECE	-9.04269
▁court	-9.04398
▁analysis	-9.0441
▁experts	-9.04507
▁real	-9.04523
▁Asia	-9.04662
▁steps	-9.04675
▁operational	-9.04737
▁Some	-9.04866
▁stated	-9.049
▁talk	-9.04999
▁communities	-9.05183
▁evidence	-9.05285
▁communication	-9.05297
▁sorry	-9.05481
▁plans	-9.05525
▁40	-9.05551
▁laws	-9.05587
▁K	-9.05634
▁missions	-9.05637
▁achieve	-9.05688
▁building	-9.05846
▁f	-9.05946
▁play	-9.06002
▁sexual	-9.06051
▁basic	-9.06236
▁came	-9.06272
▁Trade	-9.0631
▁facilitate	-9.06341
▁cannot	-9.06579
▁forms	-9.06636
▁aimed	-9.06918
▁T	-9.07027
▁supported	-9.07037
▁act	-9.07161
▁investment	-9.07235
▁Bank	-9.07298
▁strategies	-9.07335
▁young	-9.07399
▁implementing	-9.07493
▁test	-9.07536
▁Treaty	-9.07548
▁using	-9.07633
▁income	-9.07916
▁potential	-9.07983
▁Lord	-9.07987
▁safety	-9.08
▁nature	-9.08048
▁promoting	-9.08055
▁partners	-9.08125
▁protect	-9.08343
▁close	-9.08416
▁AIDS	-9.08459
▁referred	-9.08553
▁value	-9.08651
▁understanding	-9.08665
▁natural	-9.08711
▁presented	-9.08848
▁adequate	-9.09169
▁statements	-9.09224
▁effect	-9.09392
▁thus	-9.09419
▁exchange	-9.09638
▁experience	-9.0965
▁awareness	-9.09654
▁essential	-9.09869
ers	-9.09897
▁hours	-9.10052
▁final	-9.10076
▁undertaken	-9.10117
▁Review	-9.10306
▁notes	-9.10516
▁old	-9.10517
▁limited	-9.10669
▁currently	-9.10845
▁according	-9.10932
▁mind	-9.10944
▁implemented	-9.11038
▁read	-9.1134
▁arrangements	-9.1135
▁Tribunal	-9.11369
▁recommendation	-9.11453
▁asked	-9.11569
▁aspects	-9.11583
▁return	-9.12033
▁guidelines	-9.12267
▁Justice	-9.12398
▁assist	-9.12537
▁sent	-9.12569
level	-9.12661
E	-9.12938
▁Charter	-9.1304
▁affected	-9.13161
▁changes	-9.13167
▁Implementation	-9.13213
▁detention	-9.13252
▁Please	-9.13376
▁facilities	-9.13386
▁informal	-9.13456
▁pursuant	-9.13492
▁delegations	-9.13563
▁Constitution	-9.13622
▁show	-9.13981
▁connection	-9.14105
▁brought	-9.1413
▁torture	-9.14271
▁Plan	-9.14399
▁independent	-9.14474
▁individuals	-9.14572
▁Democratic	-9.14632
▁Under	-9.14737
▁vote	-9.14784
▁live	-9.14807
▁once	-9.14811
▁conduct	-9.15104
▁letter	-9.15154
to	-9.15301
▁evaluation	-9.15348
▁contribute	-9.15423
▁Al	-9.1546
▁won	-9.15562
▁former	-9.15605
▁opportunity	-9.15773
▁remain	-9.15919
▁either	-9.15952
▁Your	-9.16103
▁hand	-9.16129
▁fundamental	-9.1616
▁pay	-9.16167
▁Panel	-9.16294
▁workers	-9.16339
▁Look	-9.16469
▁enhance	-9.1655
▁55	-9.16671
▁labour	-9.16685
▁Global	-9.16817
▁Thank	-9.17066
▁offices	-9.171
▁recognized	-9.17327
▁freedom	-9.17334
▁Forum	-9.17388
▁forward	-9.17406
▁material	-9.17583
▁ensuring	-9.17592
▁please	-9.17653
▁manner	-9.17755
▁Can	-9.17805
▁climate	-9.17927
▁seen	-9.17941
▁author	-9.1815
▁lead	-9.18164
▁posts	-9.18189
▁Tom	-9.18478
▁opportunities	-9.18747
▁strategic	-9.18872
tergovernmental	-9.19161
▁mechanism	-9.19168
▁officials	-9.19257
▁People	-9.19491
▁provisional	-9.19707
▁Millennium	-9.19708
▁nothing	-9.19844
▁transfer	-9.19914
▁Management	-9.19974
▁financing	-9.20018
▁officers	-9.20046
▁vehicle	-9.20069
▁preparation	-9.20071
▁hope	-9.20078
▁met	-9.2014
▁submit	-9.20361
▁processes	-9.20375
▁low	-9.20395
▁1990	-9.20413
▁Then	-9.20439
▁Public	-9.20566
▁Cooperation	-9.20621
▁Since	-9.20709
▁functions	-9.20749
▁Force	-9.20862
▁territory	-9.2105
▁57	-9.21056
▁paragraphs	-9.21251
▁whose	-9.21357
▁contribution	-9.21386
▁compliance	-9.21476
▁American	-9.21615
▁France	-9.21753
▁increasing	-9.21759
▁team	-9.21788
C	-9.21792
▁Go	-9.21837
▁benefits	-9.21888
▁goals	-9.21935
▁articles	-9.21936
▁media	-9.22135
te	-9.22182
▁Israeli	-9.22239
▁Japan	-9.2225
▁outside	-9.223
▁medical	-9.22306
▁rural	-9.22375
▁Environment	-9.2247
▁Canada	-9.22496
▁First	-9.22798
▁themselves	-9.22893
▁identified	-9.22906
▁g	-9.22909
▁By	-9.23026
▁approval	-9.23232
▁air	-9.23285
▁CN	-9.23523
▁house	-9.23531
▁negotiations	-9.23539
▁concerns	-9.23558
▁indicated	-9.23642
▁table	-9.23648
▁Good	-9.23704
▁exercise	-9.23747
▁overall	-9.23761
▁face	-9.238
▁conducted	-9.23897
▁refugees	-9.23997
▁Non	-9.24164
on	-9.24183
▁expert	-9.24387
▁Protection	-9.24469
▁feel	-9.2454
▁infrastructure	-9.24642
▁direct	-9.24985
▁operation	-9.25002
▁fifty	-9.25008
▁coming	-9.25064
▁term	-9.25188
l	-9.25419
▁Institute	-9.25429
▁Section	-9.25452
▁crimes	-9.25457
▁soon	-9.25506
▁head	-9.25547
▁understand	-9.25563
▁start	-9.25633
▁purposes	-9.25762
▁Health	-9.25817
▁participate	-9.25931
▁Summit	-9.25943
▁integrated	-9.26247
▁According	-9.26292
▁recommends	-9.26372
▁internal	-9.26429
▁remains	-9.26497
▁goods	-9.26613
▁deal	-9.26688
▁58	-9.26708
▁reduce	-9.2695
▁Regional	-9.27134
▁positive	-9.27214
▁families	-9.27288
▁invited	-9.27365
▁regulations	-9.27582
▁room	-9.27604
▁effects	-9.27639
▁sources	-9.27657
▁higher	-9.2787
▁share	-9.27881
▁items	-9.27919
▁proceedings	-9.28082
▁allow	-9.28446
▁enforcement	-9.28454
▁judicial	-9.28459
▁language	-9.28559
▁itself	-9.2867
▁cause	-9.28909
▁English	-9.28915
▁side	-9.29146
▁After	-9.29354
▁single	-9.29423
▁type	-9.29483
.6	-9.29499
▁circumstances	-9.29535
▁outcome	-9.2961
▁integration	-9.2964
▁conference	-9.29758
▁wanted	-9.29853
▁times	-9.30023
▁alia	-9.30029
▁primary	-9.30079
▁achieved	-9.30151
▁known	-9.30173
▁revised	-9.30199
▁crisis	-9.30248
▁job	-9.30288
▁apply	-9.303
▁communications	-9.30303
▁59	-9.30362
▁commitments	-9.30437
▁TRANS	-9.30482
▁administration	-9.30567
1	-9.30681
▁Germany	-9.307
▁father	-9.30784
▁everything	-9.30801
org	-9.30841
▁objective	-9.30843
▁UNCTAD	-9.30961
year	-9.31091
▁drug	-9.31182
▁economy	-9.31414
▁activity	-9.31424
▁French	-9.31499
▁Support	-9.31651
▁multilateral	-9.31699
▁Such	-9.31723
▁61	-9.32051
related	-9.32079
▁doesn	-9.32232
▁claims	-9.32296
▁institutional	-9.32307
▁lot	-9.32319
▁active	-9.32425
▁hear	-9.32443
▁Is	-9.32451
▁elements	-9.32835
▁J	-9.32863
▁guidance	-9.33013
▁went	-9.3316
▁Did	-9.33274
▁follows	-9.33395
▁views	-9.33538
▁enough	-9.33623
▁rather	-9.33663
▁stop	-9.33684
▁Of	-9.33755
▁mother	-9.33841
▁introduced	-9.33881
▁UNICEF	-9.34091
▁throughout	-9.34106
▁48	-9.34114
▁ask	-9.34124
▁sessions	-9.34159
▁enable	-9.34177
▁56	-9.34238
▁regions	-9.34251
▁100	-9.34477
▁centres	-9.34584
▁Unit	-9.34635
▁road	-9.3464
▁heard	-9.34786
▁Right	-9.34809
▁created	-9.34953
▁benefit	-9.35089
▁indicators	-9.35145
▁AC	-9.35251
▁comments	-9.35311
▁resource	-9.35379
▁Agency	-9.35387
▁applied	-9.35551
▁guy	-9.35596
able	-9.35624
▁standard	-9.35654
▁ethnic	-9.35791
▁strong	-9.35834
▁range	-9.35878
B	-9.35929
b	-9.35978
▁hold	-9.36111
▁effort	-9.36267
▁car	-9.36501
▁sub	-9.36562
▁difficult	-9.36895
▁ways	-9.37126
▁Administrative	-9.37194
▁participants	-9.3723
▁wrong	-9.37289
▁substantive	-9.37312
▁U	-9.37429
▁transition	-9.37468
▁move	-9.37512
▁ongoing	-9.37686
▁require	-9.37715
▁prior	-9.37858
▁critical	-9.37862
▁similar	-9.37983
▁periodic	-9.38038
un	-9.38061
▁entities	-9.38196
▁co	-9.38245
▁methods	-9.38353
▁Sudan	-9.38392
▁woman	-9.3865
▁poor	-9.38849
▁words	-9.3894
▁AND	-9.38964
▁killed	-9.39503
▁combat	-9.39612
▁62	-9.39663
▁half	-9.39675
▁2014	-9.39722
▁series	-9.39745
▁Foreign	-9.39749
▁Joint	-9.39778
▁www	-9.39794
▁along	-9.3981
▁1992	-9.39972
▁effectively	-9.39991
man	-9.39992
▁Children	-9.40066
▁statistics	-9.40233
▁citizens	-9.40248
▁discussions	-9.40323
▁improving	-9.40404
▁religious	-9.40408
▁Our	-9.40519
▁initiative	-9.40523
▁paper	-9.40643
▁Also	-9.40697
▁son	-9.40961
▁Regulation	-9.40991
▁housing	-9.41069
▁49	-9.41168
▁vehicles	-9.41345
▁Table	-9.41362
D	-9.41551
▁complete	-9.41637
▁fight	-9.41644
▁32	-9.41649
▁capital	-9.41981
▁estimated	-9.42094
▁turn	-9.42138
▁points	-9.42227
▁Crime	-9.4258
▁52	-9.42582
▁reason	-9.42708
▁51	-9.42821
▁short	-9.42872
▁Peace	-9.42908
▁Item	-9.43055
▁welcomed	-9.43152
▁India	-9.43154
▁Political	-9.43157
▁sectors	-9.43311
▁extent	-9.43409
▁claim	-9.43439
▁materials	-9.43455
3	-9.43482
▁includes	-9.43598
▁schools	-9.43726
▁scope	-9.43867
▁create	-9.43883
▁interests	-9.43992
▁led	-9.44011
▁situations	-9.44074
▁Because	-9.44202
▁art	-9.44243
▁true	-9.44303
▁Get	-9.44318
▁idea	-9.44496
▁University	-9.4452
▁happened	-9.44527
▁35	-9.44681
▁products	-9.44749
▁directly	-9.44835
▁Congo	-9.44875
▁travel	-9.44925
▁Services	-9.44987
▁Civil	-9.45077
▁Second	-9.45322
▁governance	-9.45323
▁calls	-9.45402
▁civilian	-9.45404
▁someone	-9.45529
▁applicable	-9.45557
▁girl	-9.45693
▁priorities	-9.45706
▁legislative	-9.45777
▁events	-9.45858
▁receive	-9.45939
▁33	-9.46222
▁abuse	-9.46229
▁rates	-9.46269
▁Sustainable	-9.46314
▁mass	-9.46317
▁anti	-9.4633
▁investigation	-9.4637
▁technologies	-9.46417
▁saw	-9.46656
▁fine	-9.46661
▁gave	-9.4667
▁UNEP	-9.46727
responsibilities	-9.46789
.7	-9.46866
▁Education	-9.46945
▁structure	-9.46982
▁paid	-9.47022
k	-9.47231
▁courts	-9.47287
▁Recalling	-9.47323
▁parts	-9.47328
▁54	-9.4734
▁record	-9.47391
▁US	-9.47436
▁1991	-9.47464
▁Islamic	-9.47564
▁central	-9.47613
▁cover	-9.47765
▁relation	-9.4784
▁emergency	-9.47865
▁obligation	-9.47911
▁Note	-9.47966
▁debt	-9.48021
▁relations	-9.48035
▁trying	-9.48221
▁Discrimination	-9.48345
▁debate	-9.4835
▁twenty	-9.48362
▁associated	-9.48485
▁dead	-9.48539
▁physical	-9.48557
▁Draft	-9.48571
▁initial	-9.48721
▁reached	-9.48728
▁34	-9.48796
▁opinion	-9.48887
▁identify	-9.48907
▁bad	-9.48917
▁source	-9.48943
▁actually	-9.49139
making	-9.49176
▁effectiveness	-9.49199
.9	-9.49329
▁task	-9.49356
▁distribution	-9.49358
▁maintenance	-9.49431
▁Countries	-9.49512
▁average	-9.49634
▁elections	-9.49696
▁collaboration	-9.49696
▁developments	-9.49775
▁Afghanistan	-9.49796
▁la	-9.4991
▁designed	-9.50051
▁Those	-9.50127
▁alone	-9.50136
▁guys	-9.50177
▁IV	-9.5028
▁53	-9.50356
▁creation	-9.50465
▁ago	-9.5065
▁amendments	-9.5065
▁65	-9.50723
▁45	-9.50802
▁states	-9.50828
▁raised	-9.50855
▁racial	-9.50889
▁63	-9.50913
▁city	-9.50946
▁pre	-9.50963
▁Bureau	-9.51115
▁step	-9.51332
▁covered	-9.5136
▁trust	-9.51392
▁mentioned	-9.51393
▁terrorist	-9.51672
▁carry	-9.51788
▁Furthermore	-9.51798
▁appreciation	-9.51881
▁looking	-9.52022
▁specialized	-9.52049
▁assets	-9.52072
▁adopt	-9.52142
▁signed	-9.5228
▁build	-9.52336
▁hard	-9.52382
st	-9.52409
▁Although	-9.52468
▁practical	-9.52618
▁threat	-9.52741
▁encourage	-9.52779
▁continuing	-9.5283
▁parents	-9.52869
▁stakeholders	-9.52922
▁whom	-9.5298
▁36	-9.53001
ity	-9.53018
▁though	-9.53082
▁longer	-9.53124
▁voluntary	-9.53205
▁although	-9.53206
▁stay	-9.53286
▁serve	-9.53413
▁contract	-9.53433
▁Caribbean	-9.53494
▁Mexico	-9.53547
▁m	-9.53569
▁reasons	-9.53576
▁Federal	-9.53594
en	-9.53728
▁prison	-9.53753
▁Uh	-9.53804
▁across	-9.53822
▁late	-9.53832
▁v	-9.53903
▁establishing	-9.53935
us	-9.53958
▁else	-9.54059
▁aid	-9.54095
▁UNECE	-9.54212
▁big	-9.54223
▁UNHCR	-9.54285
▁run	-9.54297
▁achieving	-9.54327
▁ground	-9.5441
▁plenary	-9.54485
▁compensation	-9.54589
▁described	-9.5459
▁efficiency	-9.5475
▁37	-9.54867
▁event	-9.54924
▁Korea	-9.54928
▁discussed	-9.55053
▁continues	-9.55079
▁seek	-9.55217
▁defined	-9.55262
▁consultation	-9.55317
▁safe	-9.55321
▁peaceful	-9.5536
▁completed	-9.55392
c	-9.55427
▁universal	-9.55444
▁Child	-9.55477
▁thank	-9.5566
▁loss	-9.55695
▁West	-9.5581
▁vulnerable	-9.55943
▁intended	-9.56369
▁balance	-9.56532
▁detailed	-9.56534
▁Great	-9.56548
▁addressing	-9.56687
▁jurisdiction	-9.56755
▁suggested	-9.56796
▁clearly	-9.56821
▁permanent	-9.56936
▁economies	-9.57013
▁majority	-9.57109
▁improved	-9.57115
▁relationship	-9.57154
▁network	-9.57228
▁model	-9.57311
▁delivery	-9.57314
▁entry	-9.57376
▁Transport	-9.57404
▁displaced	-9.57438
▁supply	-9.57455
▁treaties	-9.57479
▁Pacific	-9.57481
▁stability	-9.57518
▁makes	-9.57692
▁personal	-9.57708
▁Vienna	-9.57762
▁units	-9.57769
▁nor	-9.57847
▁lost	-9.57897
▁Requests	-9.57927
▁talking	-9.57982
▁minimum	-9.58057
▁encouraged	-9.58153
▁violation	-9.58199
▁visit	-9.58263
▁Cuba	-9.58565
or	-9.5881
▁Latin	-9.58885
an	-9.58918
▁concluded	-9.58918
▁stage	-9.58996
▁construction	-9.59154
▁remember	-9.59227
▁became	-9.5925
▁consensus	-9.59294
▁kill	-9.59367
▁Australia	-9.59373
▁uh	-9.59413
▁presence	-9.59417
▁Disarmament	-9.59525
▁studies	-9.59537
▁From	-9.59594
▁lives	-9.59601
▁Here	-9.59711
▁border	-9.59813
▁factors	-9.59865
▁design	-9.59909
▁week	-9.59924
▁punishment	-9.60009
▁company	-9.60015
▁started	-9.60119
▁contact	-9.60154
▁l	-9.60178
▁wife	-9.60186
▁successful	-9.60187
▁fund	-9.60245
▁sex	-9.60293
▁sufficient	-9.60338
▁regime	-9.60345
▁try	-9.60389
▁almost	-9.60411
▁getting	-9.60524
▁North	-9.6054
▁settlement	-9.60786
▁Room	-9.60796
▁Or	-9.60899
▁ready	-9.61109
▁word	-9.61173
▁emissions	-9.61196
▁submission	-9.61234
▁urban	-9.61235
▁gas	-9.61287
▁published	-9.6136
▁supporting	-9.61427
T	-9.61638
▁beyond	-9.617
▁origin	-9.61785
▁criteria	-9.61832
▁partnership	-9.61873
▁39	-9.61996
▁Maybe	-9.61999
▁saying	-9.61999
▁Jehovah	-9.62009
▁64	-9.62012
▁educational	-9.62085
▁Netherlands	-9.62106
▁judges	-9.62111
▁Headquarters	-9.62219
▁requires	-9.62355
▁destruction	-9.62575
▁maintain	-9.6262
▁external	-9.62636
▁core	-9.6274
▁Police	-9.62802
▁sound	-9.62954
▁NGOs	-9.63015
▁Third	-9.6333
▁beginning	-9.63412
▁recently	-9.6345
▁friend	-9.63482
▁culture	-9.63564
▁welcome	-9.63723
▁Technical	-9.63761
▁demand	-9.63842
▁fire	-9.63853
▁remained	-9.63875
▁languages	-9.63882
▁illegal	-9.64093
▁respective	-9.64216
▁44	-9.64293
▁Prevention	-9.64295
▁followed	-9.64319
▁positions	-9.64349
▁Legal	-9.64367
▁Community	-9.64368
▁38	-9.64483
▁Elimination	-9.64545
▁truth	-9.64613
▁electronic	-9.64682
▁Goals	-9.64684
▁female	-9.64742
▁instrument	-9.64782
▁morning	-9.64812
▁reflected	-9.64916
ic	-9.65
▁except	-9.65166
▁observations	-9.65287
▁W	-9.65384
▁goal	-9.65464
▁written	-9.65495
▁Iran	-9.65502
▁Administration	-9.65518
h	-9.6557
▁isn	-9.65846
▁prepare	-9.65974
▁Association	-9.65996
▁leaders	-9.66056
ness	-9.66088
▁solution	-9.66152
▁47	-9.66398
▁ii	-9.66438
▁consistent	-9.66442
▁rest	-9.6653
▁EU	-9.66661
▁sixty	-9.66681
▁41	-9.66714
▁bilateral	-9.66847
▁Middle	-9.67061
▁pressure	-9.6708
▁commercial	-9.67109
.8	-9.67251
▁advice	-9.67357
▁implications	-9.67403
▁consequences	-9.67437
▁Persons	-9.67464
first	-9.67615
▁aim	-9.67698
▁forest	-9.68048
▁wait	-9.68061
▁conferences	-9.68196
▁scientific	-9.68292
▁phase	-9.68307
▁duty	-9.68312
▁operating	-9.68384
▁caused	-9.6841
▁h	-9.68458
▁challenge	-9.68562
▁Ad	-9.68571
▁knew	-9.68679
▁involving	-9.68817
▁Ireland	-9.68851
▁Italy	-9.69094
N	-9.69095
▁actors	-9.69135
▁trial	-9.69164
▁Chief	-9.69171
▁wasn	-9.69173
▁success	-9.69178
▁measure	-9.69214
▁definition	-9.69229
▁movement	-9.69298
▁conflicts	-9.69326
▁mine	-9.69413
▁resulting	-9.69475
▁Inter	-9.69512
▁traditional	-9.69632
▁statistical	-9.69759
▁Moreover	-9.69856
ation	-9.69997
▁cross	-9.70015
▁youth	-9.70064
▁allowed	-9.70082
▁approaches	-9.70165
▁industry	-9.70166
▁placed	-9.70186
▁damage	-9.70308
▁hell	-9.7036
▁42	-9.70408
▁System	-9.70425
▁sea	-9.70442
▁Experts	-9.70475
▁Rev	-9.70478
▁Brazil	-9.70499
▁Coordination	-9.7051
▁avoid	-9.70722
▁Optional	-9.70849
M	-9.70872
▁lower	-9.70907
▁companies	-9.70941
▁reach	-9.71011
▁achievement	-9.71066
▁shown	-9.7114
▁sir	-9.7117
▁Dr	-9.7136
▁Labour	-9.71432
▁46	-9.71462
▁Have	-9.71539
▁elected	-9.71546
▁determined	-9.71702
▁earth	-9.71717
▁collection	-9.71964
▁expenditure	-9.72177
▁Day	-9.72204
▁Ukraine	-9.72247
▁independence	-9.7237
▁monitor	-9.72403
▁appeal	-9.72581
▁takes	-9.72625
▁Syrian	-9.7265
▁possibility	-9.72661
▁El	-9.72682
▁Policy	-9.72779
▁billion	-9.72859
▁alternative	-9.72955
▁Further	-9.73045
▁Two	-9.73292
▁yourself	-9.73466
▁religion	-9.73538
▁useful	-9.73634
▁entire	-9.73837
▁Sub	-9.73847
▁released	-9.73914
▁seven	-9.73919
▁professional	-9.74079
▁says	-9.7417
▁disabilities	-9.74282
▁temporary	-9.74385
▁category	-9.74712
▁likely	-9.74781
ization	-9.74848
▁Switzerland	-9.74887
▁heart	-9.74914
▁conclusions	-9.74938
▁conclusion	-9.74953
▁reflect	-9.74964
▁generally	-9.75004
▁Re	-9.75137
▁planned	-9.75181
▁Hi	-9.75187
▁near	-9.75282
▁growing	-9.75407
▁Lebanon	-9.75495
▁everyone	-9.75526
▁sanctions	-9.75553
▁values	-9.75576
▁illicit	-9.7559
▁unit	-9.75633
▁dollars	-9.75782
▁stressed	-9.75807
.29	-9.75888
▁types	-9.75891
▁competent	-9.75934
▁summary	-9.75963
▁respond	-9.7601
▁Pakistan	-9.7603
▁workshop	-9.76074
f	-9.76105
▁paras	-9.76175
▁formal	-9.76286
▁month	-9.76327
▁improvement	-9.76374
▁43	-9.76383
▁function	-9.7647
-1	-9.76511
▁focused	-9.76535
▁fair	-9.76707
▁separate	-9.76735
▁yeah	-9.76743
▁centre	-9.76769
P	-9.7677
▁site	-9.76824
▁leadership	-9.77112
▁Chair	-9.77141
▁inform	-9.77149
▁concept	-9.77172
▁Jesus	-9.77174
▁anyone	-9.77346
▁dealing	-9.77612
▁Part	-9.77738
▁multi	-9.77766
▁Nuclear	-9.7777
▁UNFPA	-9.7786
▁honour	-9.77929
▁Spain	-9.77932
▁island	-9.78196
4	-9.7825
▁Territory	-9.7829
▁offer	-9.78333
▁speak	-9.78351
▁maximum	-9.78354
▁Letter	-9.78366
▁Authority	-9.784
▁Many	-9.78541
▁Turkey	-9.78559
▁specified	-9.7858
▁Any	-9.7862
▁exploitation	-9.78636
▁documentation	-9.78661
▁Vice	-9.78811
▁extended	-9.79279
▁involvement	-9.79298
▁students	-9.79379
▁brother	-9.79387
▁target	-9.79433
▁agricultural	-9.79498
▁absence	-9.7952
▁difficulties	-9.79601
▁recovery	-9.79611
▁Paragraph	-9.79612
▁procurement	-9.79613
▁partnerships	-9.79704
▁appointed	-9.79714
▁host	-9.79721
▁Internet	-9.79727
▁66	-9.798
▁Bosnia	-9.7981
▁counter	-9.79864
▁discuss	-9.799
▁subregional	-9.79913
▁offences	-9.79983
▁disaster	-9.80023
▁fourth	-9.80086
▁Norway	-9.80332
▁capacities	-9.80352
▁accepted	-9.8038
▁began	-9.80407
▁accountability	-9.80423
▁tools	-9.80426
▁inside	-9.80436
▁freedoms	-9.80523
▁urgent	-9.80589
▁Kosovo	-9.80731
▁history	-9.80744
▁amended	-9.80769
▁minutes	-9.80774
▁Research	-9.80823
▁oil	-9.80992
▁compared	-9.81016
H	-9.81047
▁Rules	-9.81099
▁leading	-9.811
▁friends	-9.81194
▁worked	-9.81197
▁broad	-9.81206
▁70	-9.81216
▁closely	-9.81345
▁negative	-9.81357
▁export	-9.81448
▁behind	-9.81676
▁Co	-9.81729
▁sense	-9.81922
▁determine	-9.81929
▁ability	-9.82076
▁Ambassador	-9.82218
▁launched	-9.82255
▁recorded	-9.82347
▁Western	-9.82398
▁forced	-9.82406
▁granted	-9.8245
▁cooperate	-9.82563
▁reduced	-9.82792
▁forty	-9.82917
▁Members	-9.82974
nd	-9.82991
▁Me	-9.82994
▁civilians	-9.83042
▁transparency	-9.83135
▁grounds	-9.83244
▁fuel	-9.83277
▁maybe	-9.83296
▁Hello	-9.83327
▁efficient	-9.8336
▁Be	-9.83373
▁Most	-9.83387
▁Strategy	-9.83541
▁etc	-9.83563
▁unless	-9.83678
▁Financial	-9.83724
▁democratic	-9.83847
▁died	-9.83878
▁represented	-9.83916
▁COP	-9.83959
▁welcomes	-9.83973
▁77	-9.84036
▁indeed	-9.84048
▁marriage	-9.84049
▁occupied	-9.8411
▁Fifth	-9.84168
▁Guinea	-9.84249
▁actual	-9.84335
▁skills	-9.84502
▁immediately	-9.84526
▁waste	-9.84568
▁produced	-9.8458
▁markets	-9.84906
▁conventions	-9.8499
▁Asian	-9.85023
▁front	-9.85054
▁membership	-9.85086
▁net	-9.85101
▁spoke	-9.85231
▁recognition	-9.85325
▁despite	-9.85411
▁gone	-9.85416
▁confidence	-9.85464
▁Egypt	-9.85469
▁nice	-9.85507
▁Rwanda	-9.85515
▁interested	-9.8554
▁timely	-9.8563
▁contains	-9.85661
▁Sea	-9.85675
▁victim	-9.85687
▁approximately	-9.85687
▁migration	-9.85705
▁Task	-9.85823
▁door	-9.8583
▁payment	-9.85874
▁election	-9.8599
▁participated	-9.86058
▁donors	-9.86143
▁audit	-9.86403
▁minorities	-9.86412
▁wide	-9.86512
▁67	-9.8655
▁workshops	-9.86569
▁attacks	-9.86593
▁Assistance	-9.86602
▁concrete	-9.86634
▁80	-9.86639
O	-9.86687
▁release	-9.86788
▁advance	-9.86822
▁Sweden	-9.86832
-2	-9.8689
▁committee	-9.86945
▁hands	-9.86994
▁refugee	-9.87061
F	-9.87101
▁TO	-9.87128
▁al	-9.87193
▁chapter	-9.87206
▁complex	-9.8748
▁base	-9.8763
▁Wait	-9.87678
▁Palestine	-9.87737
▁actively	-9.87743
▁options	-9.87757
▁content	-9.87758
▁holding	-9.87765
▁direction	-9.87771
▁declaration	-9.8782
▁Chapter	-9.87832
▁relief	-9.87906
▁categories	-9.87915
▁round	-9.87928
▁Training	-9.88004
▁Operations	-9.88014
▁Somalia	-9.88077
▁shared	-9.88129
▁book	-9.88274
▁sentence	-9.88342
▁giving	-9.88345
▁baby	-9.88415
▁Energy	-9.88426
▁expertise	-9.88506
▁express	-9.88533
▁size	-9.88549
▁Cultural	-9.88725
▁earlier	-9.88741
▁offence	-9.88801
▁John	-9.88871
▁original	-9.88879
▁Kuwait	-9.89004
▁Herzegovina	-9.89128
▁reviewed	-9.89161
▁Thus	-9.8918
▁estimates	-9.89188
▁mandates	-9.89212
▁accounts	-9.89265
▁component	-9.89279
▁Her	-9.89284
na	-9.89302
▁immediate	-9.89426
▁highest	-9.89433
ar	-9.89459
▁Thanks	-9.8955
▁wouldn	-9.89577
▁publication	-9.89775
▁undertake	-9.89805
▁fear	-9.89847
▁occupation	-9.899
▁Take	-9.89923
▁Sierra	-9.90079
▁finance	-9.90107
-4	-9.90123
▁registration	-9.90123
▁weeks	-9.90149
▁indicate	-9.90183
▁eight	-9.90234
▁assessments	-9.9024
▁bit	-9.90383
▁mainly	-9.90417
▁engaged	-9.90619
▁comply	-9.90655
▁specifically	-9.9066
ist	-9.9068
▁medium	-9.90687
▁guarantee	-9.907
▁Parliament	-9.90712
▁Regulations	-9.9073
▁rehabilitation	-9.90798
▁version	-9.90828
▁entered	-9.90867
▁scale	-9.90896
▁t	-9.90901
▁Weapons	-9.90922
▁Chairperson	-9.9096
▁amendment	-9.91027
▁Space	-9.91075
▁die	-9.91106
p	-9.91136
▁game	-9.91167
▁causes	-9.9117
third	-9.91288
▁aircraft	-9.91301
▁raise	-9.91365
-3	-9.91408
▁himself	-9.9145
▁played	-9.91467
▁complaints	-9.91484
W	-9.91543
▁press	-9.91587
▁remaining	-9.91622
▁deployment	-9.91669
▁Indonesia	-9.91684
▁inclusion	-9.91687
▁records	-9.9188
▁husband	-9.9197
▁Adoption	-9.91971
▁Like	-9.92051
▁cash	-9.92178
▁closed	-9.92188
▁industrial	-9.92197
▁Introduction	-9.92206
▁added	-9.92257
▁authorized	-9.9236
▁charge	-9.9248
▁enhancing	-9.9251
ion	-9.92538
▁applications	-9.92647
▁requirement	-9.92706
▁68	-9.92782
▁Framework	-9.92813
▁floor	-9.92872
▁Yugoslavia	-9.92883
▁Financing	-9.92971
▁Fourth	-9.93
▁agree	-9.93033
▁90	-9.93039
▁cut	-9.93043
▁UNIDO	-9.93108
▁solutions	-9.93153
▁democracy	-9.93326
▁boy	-9.93334
▁constitute	-9.93351
▁places	-9.93554
▁Zealand	-9.93555
▁listed	-9.93604
▁territories	-9.93626
▁attack	-9.93928
▁senior	-9.93947
▁imposed	-9.93956
▁ratification	-9.93987
▁sign	-9.94039
▁subsequent	-9.94084
▁SR	-9.94137
▁Islands	-9.94155
▁Officer	-9.94168
▁race	-9.94297
▁science	-9.9434
▁myself	-9.94356
▁thinking	-9.94404
▁Their	-9.94531
▁participating	-9.94562
▁failure	-9.94586
▁Official	-9.94592
▁probably	-9.946
▁stand	-9.94604
▁figure	-9.94638
▁en	-9.94662
▁town	-9.94674
▁survey	-9.94751
▁century	-9.94907
weapon	-9.94945
▁assess	-9.95145
▁interpretation	-9.95311
▁limit	-9.95316
▁0	-9.95337
▁War	-9.95382
▁consumption	-9.9542
▁competition	-9.95442
▁Leone	-9.95469
▁Distr	-9.95513
▁Ministers	-9.95525
▁resulted	-9.95595
▁happy	-9.95605
x	-9.95634
▁Original	-9.95669
▁reducing	-9.95784
▁top	-9.95795
▁tried	-9.9589
K	-9.95909
▁favour	-9.9593
▁price	-9.95937
▁Another	-9.95953
▁Even	-9.96006
R	-9.96022
▁emphasis	-9.96111
▁Territories	-9.96129
ism	-9.9613
▁respectively	-9.96232
▁spirit	-9.96236
▁coordinated	-9.96237
▁X	-9.96344
▁aware	-9.96346
▁insurance	-9.96373
G	-9.96379
▁secure	-9.96418
▁enhanced	-9.96548
▁2015	-9.96564
▁strengthened	-9.96603
▁emphasized	-9.96649
ment	-9.96661
V	-9.96752
ne	-9.96769
▁traffic	-9.96902
▁risks	-9.96992
▁representation	-9.9704
▁namely	-9.97041
▁affairs	-9.97052
▁More	-9.9711
▁married	-9.97176
▁combating	-9.97248
,000	-9.97259
▁internationally	-9.9729
▁produce	-9.97413
▁phone	-9.97517
▁Gender	-9.97556
▁encourages	-9.97597
▁decide	-9.97653
▁donor	-9.97714
▁blood	-9.97725
▁Technology	-9.97727
▁targets	-9.97791
▁Northern	-9.97884
am	-9.97938
▁learned	-9.97959
▁Following	-9.98218
▁components	-9.98224
▁FOR	-9.98295
▁crucial	-9.98354
▁recognize	-9.984
▁Status	-9.9857
▁comes	-9.98632
▁Reaffirm	-9.98728
▁fall	-9.98854
▁Finland	-9.98953
▁gross	-9.99051
▁page	-9.99124
▁urged	-9.99145
▁recruitment	-9.99268
▁integrity	-9.9929
▁Rule	-9.99294
▁consent	-9.99307
▁perspective	-9.9945
▁collective	-9.99461
second	-9.99571
▁Sorry	-9.99685
ninth	-9.99728
▁website	-9.99808
▁identification	-9.99852
▁Argentina	-9.99876
▁campaign	-9.99883
▁extend	-9.99889
▁code	-9.99928
▁haven	-9.99985
▁felt	-9.99986
el	-10.001
▁observed	-10.0016
▁rise	-10.0019
▁Project	-10.0021
▁Environmental	-10.0024
▁containing	-10.0025
▁headquarters	-10.0028
▁mutual	-10.0038
▁Spanish	-10.0044
▁De	-10.0047
▁constitutional	-10.0047
of	-10.0062
▁VI	-10.007
▁pretty	-10.0083
co	-10.0093
▁exist	-10.0095
▁yes	-10.0098
▁setting	-10.0102
▁drugs	-10.0105
▁forth	-10.0109
▁Chamber	-10.011
▁expression	-10.0114
▁conformity	-10.0122
▁increasingly	-10.0138
▁moment	-10.0139
▁Cyprus	-10.0153
▁offered	-10.0153
▁Staff	-10.0154
▁presentation	-10.0158
▁cycle	-10.0159
▁Population	-10.0159
▁findings	-10.0164
▁subsidiary	-10.0172
▁threats	-10.0177
▁eliminate	-10.0177
▁arrest	-10.0179
▁owing	-10.0187
▁OK	-10.0189
▁dangerous	-10.0191
▁Deputy	-10.0199
▁affect	-10.0209
▁send	-10.0216
▁asylum	-10.0224
▁urges	-10.0227
▁Azerbaijan	-10.0231
eighth	-10.0242
▁story	-10.0245
out	-10.0251
▁Paris	-10.0252
▁organs	-10.0258
▁fields	-10.0273
▁guess	-10.0286
▁Control	-10.0302
▁existence	-10.0303
▁Austria	-10.0315
▁institution	-10.0322
▁contributed	-10.0325
▁happen	-10.0331
▁networks	-10.035
▁Resolution	-10.0375
▁Internal	-10.0397
▁Decides	-10.0398
▁located	-10.0408
▁Peacekeeping	-10.0423
▁otherwise	-10.0434
▁observers	-10.0434
▁Monitoring	-10.0435
▁enter	-10.0441
J	-10.0449
▁tasks	-10.0453
▁alleged	-10.0458
▁Trust	-10.0459
▁choice	-10.0459
▁changed	-10.0466
ian	-10.0467
▁news	-10.0469
▁Liberia	-10.0473
▁Supreme	-10.0474
▁ON	-10.0474
▁older	-10.0478
▁works	-10.049
▁deep	-10.05
▁migrants	-10.0501
▁trends	-10.0506
▁faith	-10.0509
▁quite	-10.0514
▁defence	-10.0525
▁delay	-10.0525
▁flow	-10.0527
▁fulfil	-10.0528
▁Croatia	-10.0536
▁corruption	-10.0542
▁organizational	-10.0545
▁sought	-10.0549
▁judge	-10.055
▁wants	-10.0557
▁des	-10.056
▁norms	-10.0567
▁Man	-10.0579
▁knows	-10.0584
▁investigations	-10.0584
▁dissemination	-10.0586
▁answer	-10.0588
▁Indeed	-10.0604
▁OHCHR	-10.0605
▁speaking	-10.0608
▁selected	-10.0608
▁Indigenous	-10.0614
le	-10.0614
▁easy	-10.0614
▁Work	-10.0619
▁Poland	-10.0619
▁minority	-10.0622
▁whatever	-10.0623
▁shit	-10.0625
▁Statistics	-10.0626
▁credit	-10.0626
time	-10.0629
▁carrying	-10.0634
▁opening	-10.0634
▁convention	-10.0652
age	-10.0666
▁obtain	-10.0667
▁Questions	-10.0668
▁Czech	-10.0668
▁accept	-10.0668
▁substantial	-10.0671
▁Prime	-10.0675
▁Georgia	-10.0678
▁break	-10.0678
▁Prosecutor	-10.0683
▁UNITED	-10.0686
▁accused	-10.0688
▁executive	-10.0691
▁creating	-10.0692
▁nationality	-10.0697
▁fucking	-10.0711
w	-10.0719
▁emerging	-10.0719
ia	-10.0742
▁structures	-10.0742
▁Burundi	-10.0745
▁et	-10.0746
ton	-10.0746
▁k	-10.075
▁considering	-10.0753
▁functioning	-10.0757
▁eyes	-10.0758
▁00	-10.0758
▁territorial	-10.0761
z	-10.0766
▁ill	-10.0771
▁enterprises	-10.0772
ling	-10.0775
▁outcomes	-10.0777
▁Timor	-10.0783
▁born	-10.0785
proliferation	-10.0788
▁substances	-10.0795
▁secondary	-10.0803
fourth	-10.0809
seventh	-10.0811
▁appointment	-10.0811
▁Therefore	-10.0813
▁advisory	-10.0815
▁proper	-10.0815
▁NATIONS	-10.0817
▁reforms	-10.083
▁endorsed	-10.0836
▁highlighted	-10.0836
▁sometimes	-10.0845
▁check	-10.0851
rs	-10.0854
▁allegations	-10.0855
▁Tell	-10.0856
▁highly	-10.0867
▁failed	-10.087
▁http	-10.087
▁draw	-10.0872
▁Total	-10.0873
▁previously	-10.0873
▁St	-10.0875
▁registered	-10.0876
▁concluding	-10.0877
▁shows	-10.0892
▁Informal	-10.0905
▁75	-10.0906
▁forum	-10.0908
▁Food	-10.0912
▁thirty	-10.0912
▁Z	-10.0916
▁Contracting	-10.0919
▁engage	-10.0925
▁announced	-10.0931
▁enjoyment	-10.0932
▁message	-10.0948
▁sharing	-10.0952
▁pointed	-10.0954
▁leaving	-10.0962
▁introduction	-10.0965
▁delivered	-10.0965
▁British	-10.0969
▁Colombia	-10.0971
▁normal	-10.0972
▁Jerusalem	-10.0985
▁zone	-10.0987
▁obtained	-10.1002
▁Humanitarian	-10.1004
▁seems	-10.1004
▁Decade	-10.1006
▁racism	-10.1009
fifth	-10.1013
▁Eastern	-10.1017
▁begin	-10.1017
▁database	-10.1018
▁Expert	-10.1019
▁class	-10.1028
▁ten	-10.1035
▁ad	-10.104
▁Belarus	-10.1047
u	-10.1048
▁kept	-10.1067
▁prisoners	-10.1072
▁ratified	-10.1085
▁Safety	-10.1097
▁instance	-10.1099
ie	-10.1104
▁candidates	-10.1109
▁tool	-10.1117
▁responses	-10.1131
▁availability	-10.1144
▁Sir	-10.1146
▁wishes	-10.1148
▁contracts	-10.1176
▁Session	-10.1187
▁returned	-10.1189
sixth	-10.1193
▁opened	-10.1193
▁Field	-10.1199
▁Will	-10.1203
▁Gaza	-10.1205
▁details	-10.1215
▁completion	-10.1222
▁eat	-10.1232
▁built	-10.1239
▁considerable	-10.1243
▁vital	-10.1246
▁percentage	-10.1247
▁confirmed	-10.125
▁ILO	-10.125
▁Finally	-10.1254
▁reservations	-10.1256
is	-10.1257
L	-10.1258
▁experiences	-10.1261
▁factor	-10.1263
▁enjoy	-10.1268
▁regulatory	-10.1269
▁condition	-10.1277
▁couldn	-10.1278
rd	-10.1278
▁ex	-10.1286
▁regulation	-10.1293
▁looks	-10.1297
▁join	-10.1297
▁identity	-10.1298
▁Summary	-10.1301
▁nations	-10.1302
▁latter	-10.1306
▁birth	-10.131
▁product	-10.131
▁updated	-10.1311
▁preventing	-10.1313
▁elimination	-10.1315
ch	-10.1317
▁Hoc	-10.1318
▁Over	-10.1323
▁IAEA	-10.1324
▁iii	-10.1326
▁Red	-10.1326
,0	-10.1328
▁FAO	-10.1331
▁chance	-10.1336
▁visits	-10.1337
▁Mrs	-10.134
▁arising	-10.135
▁tax	-10.1355
▁numbers	-10.1355
▁courses	-10.1361
▁bank	-10.1371
▁expenditures	-10.1372
▁Say	-10.138
▁prices	-10.1381
▁sovereignty	-10.1386
▁instead	-10.1393
▁boys	-10.1401
▁Noting	-10.1404
▁listen	-10.141
▁restrictions	-10.142
▁69	-10.142
▁speed	-10.1422
▁partner	-10.1425
▁names	-10.1433
▁significantly	-10.1435
▁Stop	-10.1439
▁Bible	-10.1444
▁maintained	-10.1445
▁Fifty	-10.1445
▁protected	-10.1447
▁hit	-10.1447
it	-10.1457
▁agriculture	-10.1467
▁save	-10.1489
▁goes	-10.1493
▁faced	-10.1503
▁sites	-10.1505
▁reconciliation	-10.1513
▁Corr	-10.1514
▁lessons	-10.1515
▁believed	-10.1519
▁Him	-10.1522
▁attended	-10.1523
▁writing	-10.1548
▁Several	-10.155
.12	-10.1551
▁Belgium	-10.1554
▁Open	-10.1555
▁emission	-10.1582
▁Refugees	-10.1587
▁fifth	-10.1589
▁German	-10.1604
▁Forms	-10.1605
▁station	-10.1618
▁considers	-10.1618
▁linked	-10.163
▁Torture	-10.1642
▁Each	-10.1642
▁Haiti	-10.1647
▁wanna	-10.165
mail	-10.1655
▁Nigeria	-10.1657
▁governing	-10.1659
▁TIR	-10.1661
▁Despite	-10.1664
▁transit	-10.1665
▁Only	-10.1681
▁drawn	-10.1681
▁stuff	-10.1687
▁element	-10.1688
▁degree	-10.1688
▁outstanding	-10.1698
▁preliminary	-10.1706
▁Morocco	-10.1708
▁Last	-10.1732
▁Ah	-10.174
▁users	-10.1745
▁daughter	-10.1745
▁ye	-10.1757
▁tomorrow	-10.1758
▁commission	-10.176
▁modern	-10.1765
wide	-10.1768
▁formulation	-10.177
▁arrested	-10.177
▁reiterate	-10.177
▁strongly	-10.1771
▁Family	-10.1773
▁chemical	-10.1777
▁supposed	-10.1779
▁La	-10.1801
at	-10.1802
.15	-10.1806
▁duties	-10.1807
▁reintegration	-10.1815
▁Supplement	-10.1821
▁Governing	-10.1834
▁diplomatic	-10.1835
▁preparing	-10.1839
▁contain	-10.1841
▁Principles	-10.1844
▁Darfur	-10.1851
less	-10.1864
▁populations	-10.187
▁realization	-10.1874
▁supplies	-10.1877
▁background	-10.1882
▁intention	-10.1894
▁marine	-10.1901
▁guide	-10.1906
▁WHO	-10.1917
▁murder	-10.1926
▁Year	-10.1929
▁officer	-10.1951
▁exactly	-10.1957
▁seeking	-10.1958
▁topic	-10.1961
▁Signed	-10.1963
▁commissions	-10.1964
ir	-10.1969
▁publications	-10.1969
▁clean	-10.197
▁Use	-10.1971
▁gotta	-10.1974
▁determination	-10.1976
▁numerous	-10.1976
▁Resources	-10.1981
▁governments	-10.1986
▁usually	-10.1994
▁radio	-10.1995
▁socio	-10.1997
▁occurred	-10.1998
▁nine	-10.2015
▁convened	-10.2017
▁accounting	-10.2019
▁ahead	-10.202
▁Mary	-10.2026
▁unable	-10.2028
▁satisfaction	-10.2032
ra	-10.2036
▁seem	-10.2042
▁Water	-10.2057
economic	-10.2059
▁initiated	-10.2064
▁refer	-10.2066
▁Chile	-10.2072
▁globalization	-10.2074
▁coverage	-10.2077
▁thanks	-10.2081
▁learn	-10.2086
▁hoc	-10.2086
▁examination	-10.2098
▁Roma	-10.21
▁helped	-10.2102
▁running	-10.2106
▁calling	-10.2107
▁served	-10.2109
▁dad	-10.2112
ive	-10.2113
▁internally	-10.2115
▁subprogramme	-10.212
▁primarily	-10.2123
▁learning	-10.2135
▁assessed	-10.2135
▁permit	-10.2146
▁ones	-10.2149
▁Power	-10.2149
ry	-10.2156
▁acting	-10.2158
▁SC	-10.216
▁Congress	-10.2161
▁expansion	-10.2161
▁UNESCO	-10.2182
▁facing	-10.2186
▁appear	-10.2188
▁heads	-10.2189
▁equitable	-10.2193
▁grant	-10.2194
▁penalty	-10.2195
▁thematic	-10.2202
▁n	-10.2208
.10	-10.2209
▁San	-10.2216
▁principal	-10.2219
▁prosecution	-10.2232
▁employees	-10.2237
▁declared	-10.2245
ta	-10.2246
▁complainant	-10.2252
▁associations	-10.2253
▁differences	-10.2253
▁suffering	-10.2257
▁bringing	-10.2257
▁recalled	-10.2267
▁attend	-10.2267
é	-10.2276
▁Really	-10.2276
▁Ethiopia	-10.2278
▁Developing	-10.2278
▁encouraging	-10.2286
▁tonight	-10.231
ty	-10.231
▁thereby	-10.2311
-5	-10.2312
▁Promotion	-10.2316
▁examine	-10.2316
▁Scientific	-10.2324
▁neither	-10.2326
▁outer	-10.2327
▁shot	-10.233
▁diversity	-10.2331
▁km	-10.2333
▁Britain	-10.2345
▁targeted	-10.2354
os	-10.2356
▁flows	-10.2358
▁drafting	-10.236
ce	-10.2366
▁liability	-10.2371
▁Uganda	-10.2383
▁stations	-10.2391
▁board	-10.2393
▁Initiative	-10.2393
day	-10.24
▁search	-10.2401
,3	-10.2404
▁pilot	-10.2414
▁teams	-10.2415
▁Network	-10.2427
▁moved	-10.2429
determination	-10.2432
▁enabling	-10.2454
▁assigned	-10.2458
▁character	-10.2467
▁troops	-10.2475
▁Denmark	-10.2479
▁pursue	-10.248
▁links	-10.2482
▁engagement	-10.2489
▁heavy	-10.2491
de	-10.2494
▁Nothing	-10.2496
▁CO	-10.2496
▁joined	-10.2499
▁lines	-10.2502
,5	-10.2503
as	-10.2505
▁aims	-10.2506
▁limits	-10.2506
▁designated	-10.2511
▁combined	-10.2516
▁Romania	-10.2518
▁hospital	-10.2538
▁IN	-10.2539
▁obstacles	-10.2545
▁location	-10.255
▁widely	-10.255
▁speakers	-10.2551
▁Records	-10.2553
▁Subcommittee	-10.2567
▁represent	-10.2568
▁Procedure	-10.257
▁incorporated	-10.2573
▁sustained	-10.2576
▁theme	-10.258
▁spread	-10.258
▁residence	-10.2581
▁method	-10.2583
▁reservation	-10.2585
▁ownership	-10.2586
▁influence	-10.2587
▁attached	-10.2588
▁engine	-10.2592
▁powers	-10.2592
▁adaptation	-10.2592
▁harm	-10.2593
▁web	-10.2595
▁circulated	-10.2597
▁Iraqi	-10.2603
▁City	-10.2606
▁electoral	-10.2613
▁resolve	-10.2634
▁diseases	-10.2642
▁expenses	-10.265
▁London	-10.266
ma	-10.267
▁charges	-10.267
▁daily	-10.2672
ized	-10.268
▁worldwide	-10.2687
▁amounts	-10.269
▁scheduled	-10.2691
▁verification	-10.2692
▁Universal	-10.2696
▁guarantees	-10.2697
▁federal	-10.2703
▁payments	-10.2705
▁Kenya	-10.2705
▁amend	-10.2707
▁hurt	-10.2711
▁kids	-10.2712
▁moving	-10.2715
▁Air	-10.2721
▁grateful	-10.2728
▁systematic	-10.2735
▁eradication	-10.2738
▁Customs	-10.2747
est	-10.2753
▁facilitating	-10.2753
▁Algeria	-10.2753
ended	-10.2757
▁explain	-10.2758
▁impacts	-10.2765
▁keeping	-10.2773
▁Page	-10.2779
▁performed	-10.2783
▁subjected	-10.2783
▁maintaining	-10.2784
▁protecting	-10.2784
,4	-10.2789
▁Activities	-10.279
▁extension	-10.2794
▁grave	-10.2795
▁Chinese	-10.2799
▁bear	-10.2809
▁drink	-10.2811
▁burden	-10.2816
▁preparatory	-10.2816
by	-10.2817
▁Calls	-10.282
▁transmitted	-10.2822
▁turned	-10.2822
▁minute	-10.2835
▁option	-10.2836
▁geographical	-10.2847
▁vision	-10.2847
▁oversight	-10.2851
▁1989	-10.2857
▁Dad	-10.2858
▁reasonable	-10.2861
▁Society	-10.2873
j	-10.2877
▁departments	-10.2881
▁reproductive	-10.2882
▁promise	-10.2886
▁dispute	-10.2887
▁pollution	-10.2888
son	-10.2888
▁Give	-10.2888
▁worry	-10.2898
▁waiting	-10.2901
▁link	-10.2904
▁covering	-10.2908
▁fun	-10.2914
▁kid	-10.2914
▁mm	-10.2925
▁sleep	-10.2931
ro	-10.2934
▁ship	-10.2945
▁allocated	-10.2947
▁mortality	-10.2955
▁budgetary	-10.2959
▁Drugs	-10.296
▁recommend	-10.296
▁latest	-10.2966
▁Ministerial	-10.2967
▁certainly	-10.2969
▁interim	-10.2969
▁Serbia	-10.2973
▁Earth	-10.2975
▁showed	-10.2984
▁passed	-10.2984
▁starting	-10.2986
Y	-10.2987
▁transparent	-10.2991
free	-10.2993
▁Kazakhstan	-10.2997
▁hoped	-10.2999
.11	-10.3006
▁losses	-10.3008
▁Small	-10.3013
▁binding	-10.3032
▁identifying	-10.3034
▁largest	-10.304
▁receiving	-10.3042
▁Um	-10.3044
▁funded	-10.3045
▁Number	-10.3047
▁imprisonment	-10.3051
▁Notes	-10.3059
▁Ha	-10.3061
▁comment	-10.3064
▁allocation	-10.3066
▁legitimate	-10.3068
▁Peru	-10.3076
▁Lebanese	-10.3082
▁processing	-10.309
▁Preparatory	-10.3096
▁y	-10.3096
▁subsequently	-10.3105
▁believes	-10.3108
▁Paul	-10.3108
▁association	-10.3113
▁music	-10.3114
▁agency	-10.3118
▁1980	-10.3121
▁missing	-10.3127
▁affecting	-10.3131
▁regularly	-10.3132
▁black	-10.3135
▁Follow	-10.3147
▁gives	-10.3156
▁doubt	-10.3157
▁settlements	-10.3158
▁Philippines	-10.316
and	-10.3164
▁reconstruction	-10.3175
▁Assistant	-10.3178
▁perform	-10.3179
▁letters	-10.3184
▁sister	-10.3196
led	-10.3198
▁object	-10.3202
▁Taking	-10.3206
▁Le	-10.3206
▁beautiful	-10.3214
▁chap	-10.322
▁Guatemala	-10.322
▁decrease	-10.3225
▁Which	-10.3236
South	-10.3237
▁couple	-10.3242
▁Y	-10.3242
▁examples	-10.3247
▁200	-10.3254
▁signs	-10.3259
ting	-10.3261
▁nation	-10.3263
ted	-10.3264
▁soldiers	-10.3268
▁dignity	-10.3268
▁surface	-10.3274
▁firm	-10.3274
▁watch	-10.3276
▁Military	-10.3278
▁Partnership	-10.3284
▁hour	-10.3287
▁mom	-10.3288
▁Thailand	-10.3289
▁Model	-10.3296
▁computer	-10.3301
▁army	-10.3312
,6	-10.3313
▁Hungary	-10.3314
▁mainstreaming	-10.3321
▁Assessment	-10.3323
▁disasters	-10.3324
▁pending	-10.3328
▁testing	-10.333
▁Bangladesh	-10.3335
▁explained	-10.3347
▁troop	-10.3353
▁judiciary	-10.3358
the	-10.3361
▁cities	-10.3376
▁Russia	-10.3385
▁figures	-10.3388
▁warning	-10.3388
off	-10.3392
▁jointly	-10.3398
▁1988	-10.3399
▁73	-10.3401
▁Myanmar	-10.3401
▁household	-10.3404
▁migrant	-10.3412
▁uses	-10.3414
▁north	-10.3417
▁incidents	-10.3424
,8	-10.3425
▁mental	-10.3428
▁fuck	-10.3432
▁contributing	-10.3449
▁CEDAW	-10.3455
▁Saudi	-10.3456
▁Budgetary	-10.3456
▁committees	-10.3461
▁ICT	-10.3469
▁remedies	-10.3476
▁entity	-10.3477
▁Jordan	-10.3477
▁NPT	-10.3481
▁Malaysia	-10.3484
▁extensive	-10.3486
▁simply	-10.3488
▁seriously	-10.349
ur	-10.3492
▁attempt	-10.3495
v	-10.3497
▁mid	-10.3498
▁hate	-10.3517
▁walk	-10.3518
▁improvements	-10.3522
▁disease	-10.3523
▁NGO	-10.3524
,7	-10.3524
▁film	-10.3529
ka	-10.3532
▁helping	-10.3534
▁inclusive	-10.3556
▁completely	-10.3557
▁afraid	-10.3559
▁OECD	-10.3564
▁spent	-10.3564
use	-10.3567
▁video	-10.357
▁distributed	-10.3573
▁proportion	-10.3573
▁introduce	-10.3586
▁technological	-10.3589
da	-10.359
▁examined	-10.359
▁seat	-10.3591
▁perpetrators	-10.3593
▁papers	-10.3595
▁counsel	-10.3595
▁invitation	-10.3602
▁none	-10.3603
▁Professional	-10.3605
▁Movement	-10.3605
▁Statute	-10.3605
▁difference	-10.3622
▁evil	-10.3622
▁rapid	-10.3628
▁fighting	-10.3635
▁custody	-10.3638
▁Having	-10.3643
▁unto	-10.3647
▁Armenia	-10.3647
▁doctor	-10.3655
ah	-10.3665
▁inspection	-10.3666
▁witness	-10.3668
▁supports	-10.3669
▁dealt	-10.3673
▁sit	-10.3678
▁Listen	-10.3678
▁pro	-10.3679
▁detained	-10.3686
▁preventive	-10.3686
▁device	-10.3689
▁investments	-10.3693
▁coordinate	-10.3696
▁seminars	-10.3698
▁advantage	-10.3712
▁command	-10.3721
▁severe	-10.3724
▁ideas	-10.3736
▁72	-10.3737
▁wished	-10.374
ary	-10.3748
▁south	-10.375
▁King	-10.375
▁transferred	-10.3752
▁Three	-10.3756
▁secret	-10.3757
▁middle	-10.376
▁Recognizing	-10.3767
▁extreme	-10.3771
▁album	-10.3775
ating	-10.3776
▁VII	-10.3781
▁Forces	-10.3784
▁Land	-10.3785
▁frameworks	-10.3787
▁tests	-10.3787
▁Ma	-10.3787
▁complaint	-10.3789
,1	-10.379
▁becoming	-10.3795
▁track	-10.3799
▁meant	-10.3803
▁Peoples	-10.3805
▁panel	-10.3811
▁replace	-10.3818
▁ended	-10.382
▁Racial	-10.3824
▁path	-10.383
la	-10.3842
▁witnesses	-10.3849
▁add	-10.3854
▁looked	-10.3855
▁formed	-10.3861
▁House	-10.3861
▁Greece	-10.3864
▁buy	-10.3864
▁serving	-10.3866
▁strength	-10.3867
▁devices	-10.3877
▁Accordingly	-10.3879
▁appears	-10.3879
▁Additional	-10.3881
▁teachers	-10.3892
▁Portugal	-10.3892
▁seminar	-10.3894
▁transactions	-10.3894
▁sanitation	-10.3898
▁governmental	-10.3904
▁white	-10.3906
▁Both	-10.3908
▁gun	-10.3908
▁variety	-10.3909
▁crazy	-10.3913
▁equivalent	-10.3913
▁finally	-10.3915
no	-10.3917
▁Guidelines	-10.392
▁Change	-10.392
.30	-10.3927
▁Main	-10.3937
▁WTO	-10.3946
▁title	-10.3951
▁directed	-10.3953
▁Rome	-10.3955
▁fixed	-10.3956
▁sustainability	-10.3957
▁sale	-10.3958
▁focal	-10.3962
ant	-10.3965
▁productive	-10.3965
▁Through	-10.3966
▁Strategic	-10.3967
▁unemployment	-10.3968
▁competence	-10.3968
▁Independent	-10.3974
▁drive	-10.3976
▁controls	-10.3981
▁prohibited	-10.3981
▁Body	-10.3986
▁Given	-10.3989
▁consultative	-10.3993
▁Foundation	-10.4001
▁constraints	-10.4005
▁Recommendation	-10.4006
▁reviews	-10.4006
▁safeguards	-10.401
▁CD	-10.401
▁households	-10.4012
▁j	-10.4016
▁Consideration	-10.4017
▁observer	-10.4022
▁Coordinator	-10.4023
▁playing	-10.4027
▁length	-10.4033
▁standing	-10.4034
▁suffered	-10.4038
,2	-10.4059
▁Mar	-10.4062
▁disputes	-10.4063
▁district	-10.4065
▁substance	-10.4071
▁gap	-10.4071
▁constructive	-10.4078
▁methodology	-10.4089
▁expanded	-10.4103
line	-10.4114
▁David	-10.4118
▁innovative	-10.4119
▁Decision	-10.4122
▁Friday	-10.4124
▁fast	-10.4125
▁Climate	-10.4137
▁involve	-10.4139
▁disability	-10.4142
▁simple	-10.4143
▁notice	-10.415
▁Comprehensive	-10.4153
,9	-10.4156
▁95	-10.416
▁acceptance	-10.4163
▁Observer	-10.4164
▁detainees	-10.4171
▁Turkish	-10.4182
ine	-10.4198
▁named	-10.4198
▁update	-10.4199
▁changing	-10.4202
▁danger	-10.4212
▁Head	-10.4222
▁sections	-10.4226
▁achievements	-10.4228
▁deliver	-10.4231
▁humanity	-10.4235
▁write	-10.4241
▁village	-10.4242
agency	-10.4253
▁belief	-10.4255
▁male	-10.4261
▁Nairobi	-10.4266
▁worth	-10.4266
▁reiterated	-10.4268
▁destroyed	-10.4272
▁71	-10.4273
▁lie	-10.4273
▁Similar	-10.4276
▁outlined	-10.4276
▁unique	-10.4276
▁Peter	-10.4282
▁impunity	-10.429
▁picture	-10.4307
▁Strengthening	-10.431
li	-10.4311
▁Costa	-10.4323
▁Road	-10.4329
▁contrary	-10.4339
▁76	-10.4348
▁Science	-10.4354
▁Bulgaria	-10.4358
▁Integrated	-10.4364
▁copy	-10.4367
▁telling	-10.4368
raising	-10.4383
ad	-10.4386
▁Every	-10.4387
▁voice	-10.4394
▁Document	-10.44
▁investigate	-10.4401
▁trend	-10.4407
ies	-10.442
▁file	-10.4424
▁Sri	-10.4429
▁hot	-10.4431
▁rape	-10.4433
▁Measures	-10.4434
▁hearing	-10.4434
▁o	-10.4435
▁UNODC	-10.4435
▁selection	-10.444
ha	-10.4442
▁assisting	-10.4445
▁resumed	-10.4456
land	-10.4459
▁LDCs	-10.4466
▁GENERAL	-10.4482
▁liberty	-10.4483
▁volume	-10.4484
▁corresponding	-10.4485
▁demonstrated	-10.4502
▁Monday	-10.4506
▁Its	-10.4507
10	-10.451
▁Angola	-10.4513
▁song	-10.4527
ous	-10.4528
▁sort	-10.4529
di	-10.4532
▁valuable	-10.4535
▁teaching	-10.4537
▁train	-10.4541
▁customs	-10.4546
ca	-10.4559
▁revision	-10.4559
▁pleased	-10.4562
▁Documentation	-10.4562
▁campaigns	-10.457
▁legally	-10.4572
▁topics	-10.4573
▁meaning	-10.4576
▁envisaged	-10.4577
▁Today	-10.4578
ov	-10.4583
▁chemicals	-10.4595
▁invite	-10.4596
▁lose	-10.4597
▁CP	-10.4601
▁anymore	-10.4606
▁structural	-10.4619
▁extremely	-10.4623
▁anniversary	-10.4626
▁empowerment	-10.4626
izing	-10.4632
▁Before	-10.4634
▁vol	-10.4634
▁package	-10.4635
▁jobs	-10.464
▁bar	-10.4642
▁laid	-10.4645
▁relatively	-10.4651
Secretary	-10.4654
▁x	-10.4657
▁manage	-10.4681
▁represents	-10.4687
▁Team	-10.4688
▁expand	-10.47
▁relevance	-10.4704
▁composition	-10.4709
▁adjustment	-10.4715
▁violated	-10.4719
▁enterprise	-10.4719
▁Excellency	-10.4726
▁nearly	-10.473
▁OIOS	-10.4732
▁capabilities	-10.4739
▁foster	-10.4739
▁managed	-10.4741
▁deliberations	-10.4743
▁segment	-10.4745
▁huh	-10.4755
▁multiple	-10.4758
il	-10.4767
▁program	-10.4771
▁detail	-10.4773
▁Mom	-10.4775
▁cold	-10.4777
▁overcome	-10.4783
▁em	-10.4787
▁raising	-10.4787
▁prostitution	-10.4788
▁belonging	-10.479
▁Un	-10.4791
▁vessels	-10.4791
▁sick	-10.4794
▁85	-10.4799
▁Nepal	-10.4803
▁Beijing	-10.4804
▁killing	-10.4808
▁pass	-10.4818
▁212	-10.4821
▁alive	-10.4839
scale	-10.484
▁exception	-10.4841
▁Kyoto	-10.4844
▁format	-10.4849
▁98	-10.4849
▁regards	-10.4849
▁modalities	-10.4851
▁trained	-10.4854
▁Southern	-10.486
▁wrote	-10.4868
▁Does	-10.4869
▁temperature	-10.4881
▁coordinating	-10.489
▁mandated	-10.4892
▁WG	-10.4892
▁charged	-10.4897
▁voting	-10.4898
▁schedule	-10.49
▁reality	-10.4901
▁accession	-10.4905
▁applying	-10.4916
▁welfare	-10.4918
▁map	-10.4924
▁forget	-10.4924
▁trouble	-10.4925
▁characteristics	-10.4929
▁fish	-10.4932
▁societies	-10.4939
▁78	-10.4941
terrorism	-10.4941
▁bearing	-10.4949
▁vulnerability	-10.495
▁Ecuador	-10.4951
▁League	-10.4953
6	-10.4965
▁stock	-10.4975
▁homes	-10.4978
▁reaffirmed	-10.4983
▁Mo	-10.4986
▁replaced	-10.4989
▁largely	-10.5009
▁sixth	-10.5014
▁Planning	-10.5014
▁noting	-10.5014
▁biological	-10.5017
▁Excuse	-10.5019
▁Venezuela	-10.5024
▁employed	-10.5033
▁master	-10.5039
▁74	-10.504
▁commit	-10.504
▁visited	-10.504
▁Representatives	-10.5046
men	-10.5049
▁choose	-10.5049
▁Sixth	-10.5051
▁Budget	-10.5051
▁withdrawal	-10.5054
▁advanced	-10.5063
▁recognizes	-10.5066
▁lawyer	-10.507
▁transmit	-10.5071
▁weight	-10.5085
▁indicates	-10.5087
▁exports	-10.5087
▁Would	-10.5094
▁Agriculture	-10.5102
▁asking	-10.5107
▁banks	-10.5115
▁rejected	-10.5123
▁percent	-10.5127
▁solidarity	-10.5129
▁um	-10.5132
▁Data	-10.5136
▁pp	-10.5141
▁finding	-10.5145
▁generation	-10.5148
▁Cambodia	-10.5152
▁perhaps	-10.5159
▁relative	-10.516
▁reading	-10.5162
▁career	-10.5162
▁protocol	-10.5163
▁fell	-10.517
▁School	-10.5179
com	-10.5187
▁transportation	-10.5195
▁storage	-10.5206
▁therein	-10.5211
▁List	-10.5222
▁mention	-10.5223
▁mines	-10.5224
▁realize	-10.5226
▁southern	-10.5226
▁broader	-10.523
▁Issues	-10.5232
▁con	-10.5234
▁Equality	-10.5237
▁arbitrary	-10.5239
▁Q	-10.5249
▁advocacy	-10.5249
▁Greek	-10.5258
▁quickly	-10.5259
▁driving	-10.5262
▁Country	-10.5266
▁online	-10.5268
▁guaranteed	-10.5269
▁Island	-10.5272
▁extradition	-10.5274
▁decline	-10.5277
▁EC	-10.5277
▁species	-10.5282
ge	-10.5285
▁Local	-10.5286
▁band	-10.5288
▁Slovenia	-10.5291
▁96	-10.5293
▁revealed	-10.5295
▁Welcomes	-10.5298
▁greatest	-10.5304
▁treated	-10.5305
▁television	-10.5315
▁focusing	-10.5317
▁thousands	-10.5319
ial	-10.5326
▁facts	-10.5327
▁red	-10.533
do	-10.5333
▁experienced	-10.5344
▁99	-10.5348
mentioned	-10.5351
conflict	-10.5352
▁Christian	-10.536
ni	-10.5372
me	-10.5372
▁surely	-10.5376
id	-10.538
▁bill	-10.5383
ya	-10.5385
▁double	-10.5387
▁representing	-10.539
▁Finance	-10.5396
▁CRC	-10.5403
▁marked	-10.5409
▁reply	-10.5412
▁proliferation	-10.5412
▁wall	-10.5421
.1.	-10.5425
▁measured	-10.5431
▁operate	-10.5433
▁devoted	-10.5434
▁constitutes	-10.5446
▁Pre	-10.5454
▁facility	-10.5457
▁Lanka	-10.5467
▁removed	-10.5477
▁gets	-10.5481
▁instructions	-10.5486
▁gaps	-10.5486
▁conducting	-10.5489
▁occasion	-10.5489
▁launch	-10.5489
U	-10.5491
▁briefing	-10.5494
▁sides	-10.5495
▁unilateral	-10.5497
old	-10.5499
▁periods	-10.55
ful	-10.5501
▁duration	-10.5502
specific	-10.5512
▁signature	-10.5514
▁Nevertheless	-10.5515
▁Lithuania	-10.5521
▁prohibition	-10.5525
▁Constitutional	-10.5529
▁premises	-10.5529
▁INF	-10.5531
5	-10.5539
▁intolerance	-10.554
▁larger	-10.5546
▁appeared	-10.5554
▁Violence	-10.5556
▁trading	-10.5564
▁corporate	-10.5575
▁sets	-10.5579
▁input	-10.5581
um	-10.5583
▁rose	-10.56
▁insufficient	-10.5607
▁Army	-10.562
ol	-10.5621
▁camps	-10.5622
▁claimed	-10.5628
▁Among	-10.564
▁Treatment	-10.5642
▁widespread	-10.5643
▁Rica	-10.5644
▁behaviour	-10.5645
▁feeling	-10.5652
▁GEF	-10.5656
▁accessible	-10.5664
▁techniques	-10.5668
▁demands	-10.5671
▁Eritrea	-10.5673
▁lasting	-10.5673
▁Communications	-10.5678
▁decade	-10.5686
▁Operation	-10.5687
▁reflects	-10.5691
▁undertaking	-10.5695
ING	-10.5698
▁explanation	-10.5698
▁inventory	-10.5701
ley	-10.5705
ko	-10.571
▁staffing	-10.5722
▁Miss	-10.5724
▁organize	-10.5725
▁applies	-10.5725
▁ENGLISH	-10.5725
▁Slovakia	-10.5726
▁understood	-10.5735
▁acceptable	-10.5736
▁pension	-10.5738
▁consolidated	-10.5749
▁copies	-10.5749
▁preparations	-10.5756
-19	-10.5761
▁capable	-10.5763
▁execution	-10.5771
being	-10.5771
▁promoted	-10.5774
▁street	-10.5776
▁win	-10.5783
▁desire	-10.5786
▁Once	-10.5792
▁resident	-10.5798
▁intellectual	-10.5798
▁Defence	-10.5799
▁Penal	-10.5801
▁disposal	-10.5817
▁stable	-10.5818
▁Platform	-10.5821
▁abroad	-10.5822
▁81	-10.5825
▁Recommendations	-10.5828
ba	-10.5838
▁continuous	-10.5838
▁Statistical	-10.5839
▁dedicated	-10.584
▁Christ	-10.5841
▁tolerance	-10.5842
▁covers	-10.5842
▁composed	-10.5843
▁expect	-10.5843
▁denied	-10.5847
▁lt	-10.5849
▁83	-10.5859
▁Pursuant	-10.586
▁cell	-10.5864
▁Ra	-10.5866
▁programming	-10.5869
discrimination	-10.5873
▁carbon	-10.5883
▁managers	-10.5885
▁pick	-10.5888
▁conclude	-10.5893
▁Sure	-10.5893
▁roles	-10.5896
▁1986	-10.5901
▁prove	-10.5909
▁mobilization	-10.5915
▁Uzbekistan	-10.5917
▁bed	-10.5926
▁fishing	-10.5934
▁94	-10.5935
▁proceed	-10.5942
▁drew	-10.5945
▁CERD	-10.5958
▁notification	-10.5959
▁camp	-10.5982
▁dis	-10.5984
▁Sam	-10.5985
▁Provisional	-10.5999
▁closer	-10.6003
▁Urges	-10.601
▁description	-10.6012
▁controlled	-10.6021
▁CONF	-10.6022
▁allowance	-10.6027
▁lived	-10.6028
▁Anti	-10.6028
▁Tunisia	-10.6029
▁Employment	-10.6032
▁acquisition	-10.6035
▁Counter	-10.6041
▁Uruguay	-10.6049
▁software	-10.6051
▁green	-10.6053
▁allowing	-10.6054
▁acknowledged	-10.6056
▁Cross	-10.6061
▁Oversight	-10.6062
▁scheme	-10.6075
▁integrate	-10.6075
▁enemy	-10.6081
treatment	-10.6083
▁97	-10.6086
▁locations	-10.6091
ter	-10.6091
▁expresses	-10.6092
▁discriminatory	-10.6094
▁forums	-10.6098
▁stress	-10.6113
▁occur	-10.6118
▁Bill	-10.6122
▁barriers	-10.6127
ak	-10.613
▁borders	-10.6132
▁eye	-10.6133
▁300	-10.6134
▁Annual	-10.6136
▁Indian	-10.6138
▁impossible	-10.614
▁accident	-10.6146
▁HRC	-10.6148
▁wider	-10.6154
▁79	-10.6157
Commission	-10.6158
▁properly	-10.6161
▁aggression	-10.6163
▁Senegal	-10.6164
▁amp	-10.6165
▁Arabia	-10.6179
,500	-10.6179
▁Ar	-10.618
▁incorporate	-10.619
▁posed	-10.6192
ate	-10.6194
▁Am	-10.6199
▁Book	-10.6201
ize	-10.6202
▁Ghana	-10.6209
▁via	-10.621
▁Thursday	-10.6211
▁remote	-10.6213
▁Euro	-10.6213
▁adverse	-10.6213
▁Yet	-10.6215
▁savings	-10.6223
▁appeals	-10.6224
▁87	-10.6225
▁president	-10.6225
▁permitted	-10.624
▁Adviser	-10.6241
▁orders	-10.6244
▁82	-10.6244
30	-10.6247
▁ministries	-10.6247
go	-10.6248
▁strict	-10.6248
▁questionnaire	-10.625
▁ma	-10.6253
et	-10.6257
▁requesting	-10.6259
▁Tanzania	-10.6262
▁conservation	-10.6266
▁cool	-10.6267
▁satellite	-10.6267
▁adopting	-10.6268
▁r	-10.6268
▁stages	-10.6277
▁opposition	-10.6287
▁93	-10.6289
▁Ombudsman	-10.6292
▁harmonization	-10.6293
▁Mm	-10.6294
▁Palestinians	-10.6298
▁spend	-10.6301
▁Acting	-10.6302
▁increases	-10.6303
▁coherence	-10.6304
▁Reduction	-10.6308
▁integral	-10.6314
▁Figure	-10.6318
▁Business	-10.6319
▁About	-10.6319
▁drop	-10.6335
▁displacement	-10.6346
▁census	-10.6347
▁fill	-10.6354
one	-10.6358
▁determining	-10.6361
▁models	-10.6362
▁Bar	-10.6363
▁driver	-10.6364
▁Decree	-10.6368
▁rich	-10.6375
▁touch	-10.6382
ri	-10.6386
▁Encourages	-10.6392
▁Lo	-10.6395
▁intervention	-10.6397
▁Afghan	-10.6399
▁decades	-10.6399
▁embargo	-10.6405
▁Industrial	-10.6406
▁COMMITTEE	-10.6407
ED	-10.6407
▁functional	-10.6413
▁Armed	-10.6413
▁tenth	-10.6413
▁occupy	-10.6414
▁urge	-10.6421
▁appreciate	-10.6422
▁agents	-10.6422
be	-10.6423
▁Statement	-10.6427
▁facilitation	-10.6443
▁correct	-10.6448
▁perfect	-10.6448
▁airspace	-10.645
▁refers	-10.6456
▁92	-10.6461
▁slow	-10.6474
care	-10.6477
▁newly	-10.6478
▁tourism	-10.6478
▁Moldova	-10.648
▁Rio	-10.648
▁Peacebuilding	-10.6481
▁Ivoire	-10.6485
se	-10.6495
▁Based	-10.6496
▁asset	-10.6498
▁surveys	-10.6508
▁Mali	-10.651
▁Bo	-10.6511
▁interventions	-10.6518
▁considerations	-10.6534
▁monthly	-10.6535
▁prescribed	-10.6538
ner	-10.6539
▁exceed	-10.6539
▁George	-10.6542
▁Ibid	-10.6545
▁relate	-10.6553
▁advancement	-10.6555
▁aren	-10.6555
ul	-10.6557
▁manufacturer	-10.6559
▁ban	-10.656
▁Ben	-10.6566
▁Auditors	-10.657
▁120	-10.6573
▁Time	-10.6573
▁sect	-10.6574
▁Tuesday	-10.6575
▁demonstrate	-10.6576
▁user	-10.6577
▁stupid	-10.6581
ber	-10.6587
▁miss	-10.659
▁degradation	-10.659
▁inadequate	-10.6591
lo	-10.6592
▁requiring	-10.6594
▁procedural	-10.6595
▁91	-10.6604
▁hair	-10.6604
▁overview	-10.6605
▁convinced	-10.6606
▁explore	-10.6607
▁fault	-10.6611
▁Election	-10.6614
▁FCCC	-10.6614
▁Montenegro	-10.6616
▁thou	-10.6616
▁remedy	-10.6619
▁decides	-10.6623
▁drawing	-10.663
ance	-10.6636
▁UNOPS	-10.6638
▁deployed	-10.664
▁Salvador	-10.664
▁successfully	-10.6652
▁Reports	-10.6656
20	-10.6674
▁Michael	-10.6686
▁incident	-10.6693
▁UNRWA	-10.6697
▁500	-10.6701
▁utilization	-10.6703
▁box	-10.6703
▁River	-10.6704
▁distance	-10.6718
▁equally	-10.6719
▁square	-10.6729
▁Youth	-10.673
▁suggestions	-10.673
▁zones	-10.6732
▁Wednesday	-10.6733
▁Nam	-10.6735
▁pregnant	-10.6735
▁pain	-10.6738
▁financed	-10.6738
▁iv	-10.674
▁collect	-10.674
▁budgets	-10.6742
▁Within	-10.675
ina	-10.6753
▁hazardous	-10.6753
▁distinction	-10.6754
8	-10.6757
▁nationals	-10.6767
▁reaching	-10.6769
▁2008-2009	-10.6782
▁signing	-10.6783
▁Standard	-10.6783
▁collected	-10.6784
▁disabled	-10.6784
▁mark	-10.6786
▁Macedonia	-10.6791
▁servants	-10.6791
▁88	-10.6802
oriented	-10.6802
▁somebody	-10.6803
▁estimate	-10.6805
▁northern	-10.6808
▁valid	-10.6809
▁Saint	-10.6811
▁Japanese	-10.6811
▁academic	-10.6814
▁reliable	-10.6814
▁lawyers	-10.6817
▁conjunction	-10.6824
▁Guide	-10.6826
▁define	-10.6832
▁balanced	-10.6833
▁Was	-10.6833
▁happens	-10.6834
▁salary	-10.6836
▁transboundary	-10.6846
▁outputs	-10.6857
▁Mechanism	-10.6858
▁dimensions	-10.6863
▁index	-10.6864
▁drinking	-10.6867
▁historical	-10.6867
▁offers	-10.6868
▁86	-10.6869
▁measurement	-10.6873
▁vocational	-10.688
▁department	-10.6886
▁Takes	-10.6886
▁reportedly	-10.6889
▁import	-10.6889
▁certificate	-10.6891
▁cluster	-10.6894
▁worship	-10.6898
▁Process	-10.6902
▁GDP	-10.6903
▁1987	-10.6904
▁Building	-10.6914
▁sample	-10.6917
▁everybody	-10.6918
▁Tajikistan	-10.6919
▁allows	-10.692
▁suitable	-10.6931
▁grow	-10.6932
▁Occupied	-10.6937
ons	-10.6939
▁mitigation	-10.6941
▁movements	-10.6942
▁retain	-10.6945
wa	-10.6953
▁remove	-10.6959
▁Libyan	-10.6959
▁1982	-10.6965
▁SBI	-10.6967
ler	-10.6972
▁Black	-10.6979
▁1985	-10.6981
▁Access	-10.6984
▁authors	-10.6984
▁dog	-10.6986
▁mostly	-10.6988
▁psychological	-10.6998
▁84	-10.6999
▁handle	-10.6999
▁season	-10.7003
▁exclusion	-10.7014
▁transnational	-10.7016
▁municipal	-10.7029
▁ministerial	-10.7032
▁arrived	-10.7038
▁brief	-10.7043
▁SBSTA	-10.7043
▁neighbouring	-10.705
▁books	-10.7053
▁guilty	-10.7056
▁deaths	-10.7057
▁secured	-10.7057
▁glad	-10.7061
ek	-10.7061
▁quarter	-10.7061
▁solid	-10.7081
▁suggest	-10.7094
▁discharge	-10.7097
▁features	-10.71
▁adequately	-10.71
▁parallel	-10.7102
ho	-10.7111
▁cruel	-10.7112
▁Inland	-10.7118
▁sponsors	-10.7125
▁connected	-10.7126
▁removal	-10.7127
▁register	-10.7128
ke	-10.714
▁xenophobia	-10.714
▁mandatory	-10.7142
▁injury	-10.7142
▁Sixty	-10.7146
▁citizenship	-10.7149
▁bound	-10.7149
▁1967	-10.7151
▁lies	-10.7153
▁Di	-10.7159
▁qualified	-10.7161
▁forests	-10.7161
▁violent	-10.7167
▁sensitive	-10.7168
▁texts	-10.7174
▁Singapore	-10.7186
▁twice	-10.7191
▁Invites	-10.7191
▁judgement	-10.7198
▁deemed	-10.7199
▁Center	-10.7203
▁chosen	-10.7204
▁plant	-10.7209
▁evaluate	-10.7212
▁UNCITRAL	-10.7215
▁Heads	-10.7216
Z	-10.7224
▁propose	-10.7232
▁seats	-10.7234
▁consists	-10.7234
▁equity	-10.7235
▁extra	-10.7244
▁guided	-10.7247
▁objects	-10.7247
▁dear	-10.7256
▁suffer	-10.7257
ent	-10.7259
▁prompt	-10.7259
▁subparagraph	-10.7265
▁maternal	-10.7271
▁Latvia	-10.7275
▁dinner	-10.7277
▁negotiation	-10.728
pe	-10.7286
▁transmitting	-10.7293
▁flight	-10.7295
▁regardless	-10.7301
▁truly	-10.7303
▁sold	-10.7305
▁2006-2007	-10.7307
▁du	-10.731
▁administering	-10.7316
▁Order	-10.7321
▁begun	-10.7323
▁gain	-10.7324
▁recognizing	-10.7327
▁Bolivia	-10.733
▁Regarding	-10.733
▁moral	-10.7353
▁proof	-10.7355
▁ordinary	-10.7358
▁quick	-10.736
▁popular	-10.7362
▁Washington	-10.7365
▁89	-10.7365
▁citizen	-10.7367
▁wage	-10.7368
▁objection	-10.737
▁Should	-10.7373
▁hey	-10.7378
▁Albania	-10.738
ci	-10.7382
▁seized	-10.7384
▁prejudice	-10.7384
▁talks	-10.7389
▁thereof	-10.7398
▁Poverty	-10.7408
▁Inspection	-10.7413
▁seeing	-10.7417
▁worse	-10.7431
▁straight	-10.7433
▁assume	-10.7436
▁card	-10.7436
▁Arabic	-10.744
▁exists	-10.744
▁Wow	-10.7443
▁Habitat	-10.7443
▁VIII	-10.7444
▁arts	-10.7444
▁Trafficking	-10.7447
▁careful	-10.7449
▁assisted	-10.7453
▁filed	-10.746
State	-10.7466
▁buildings	-10.7469
▁Make	-10.747
▁1373	-10.7475
▁crises	-10.7477
▁putting	-10.7478
▁finds	-10.7481
▁En	-10.7481
▁arrangement	-10.7483
called	-10.7488
▁lists	-10.7489
▁White	-10.7499
way	-10.7499
▁refused	-10.7502
▁inhuman	-10.7507
▁gt	-10.7509
▁plane	-10.751
▁injured	-10.7514
za	-10.7515
▁Cameroon	-10.7518
▁replies	-10.7521
ors	-10.7522
▁demobilization	-10.7526
ally	-10.7531
▁Delegations	-10.7532
▁platform	-10.754
▁port	-10.7541
▁constituted	-10.7544
▁Chad	-10.7547
▁Pro	-10.7556
▁convicted	-10.7556
▁powerful	-10.7557
▁mankind	-10.7562
▁reviewing	-10.7568
▁Progress	-10.7568
eth	-10.7574
▁phenomenon	-10.758
▁transitional	-10.7582
▁Transitional	-10.7585
▁ain	-10.7589
▁schemes	-10.7591
▁heading	-10.7603
Leste	-10.7615
▁James	-10.7615
▁conventional	-10.7618
▁Class	-10.7619
▁degrading	-10.7619
▁feet	-10.7621
▁patterns	-10.7621
▁Press	-10.7629
▁wealth	-10.7634
▁fiscal	-10.764
▁notably	-10.7642
▁Very	-10.7646
▁seventh	-10.765
▁adjustments	-10.7652
▁leader	-10.7652
▁translation	-10.7653
income	-10.7653
▁terrorists	-10.7662
▁annually	-10.7663
▁interaction	-10.7664
▁carriage	-10.7676
▁award	-10.7679
▁Paragraphs	-10.7679
▁greatly	-10.768
▁totally	-10.768
▁150	-10.7682
▁biodiversity	-10.7683
.13	-10.7685
▁Jamaica	-10.769
▁tables	-10.7691
▁transmission	-10.7692
▁Investment	-10.7697
▁pages	-10.7704
▁allegedly	-10.7706
▁frequently	-10.7716
pa	-10.7718
▁pertaining	-10.772
▁oral	-10.7722
▁vessel	-10.7722
▁flexibility	-10.7724
▁Mauritius	-10.7725
▁responded	-10.7729
▁biennial	-10.7731
▁Italian	-10.7732
▁formulated	-10.7734
▁calculated	-10.7736
▁possibly	-10.7739
▁introducing	-10.774
▁seeks	-10.7747
▁Standards	-10.7749
▁presidential	-10.7752
▁piece	-10.7756
▁classification	-10.7757
▁prisons	-10.776
▁struggle	-10.7763
▁minor	-10.7767
▁proved	-10.7771
▁restructuring	-10.7774
▁machinery	-10.7775
mo	-10.778
,200	-10.7783
▁cargo	-10.7793
▁Steering	-10.7795
▁Emergency	-10.7798
▁heavens	-10.7801
▁consist	-10.7802
▁projected	-10.7803
▁easily	-10.7811
▁division	-10.7813
Proliferation	-10.7813
▁seemed	-10.7817
▁ourselves	-10.7817
▁Final	-10.7819
▁innovation	-10.7821
▁constant	-10.7825
▁accordingly	-10.7829
▁Evaluation	-10.7836
▁Estonia	-10.7841
▁sell	-10.7841
▁aged	-10.7846
▁chief	-10.7848
ac	-10.7848
▁contingent	-10.7851
ship	-10.7851
▁interesting	-10.7852
▁deprived	-10.7857
▁weak	-10.7858
▁accompanied	-10.7858
▁Standing	-10.7858
45	-10.786
60	-10.786
con	-10.7865
ung	-10.7866
▁acknowledge	-10.7871
▁Interior	-10.7876
▁Yugoslav	-10.7879
▁dimension	-10.7886
▁restricted	-10.7891
▁Father	-10.7892
▁2004-2005	-10.7892
▁acquired	-10.7893
▁commend	-10.7895
▁Migration	-10.79
▁productivity	-10.7901
▁supervision	-10.7902
▁Qatar	-10.7903
▁coastal	-10.7904
▁peacebuilding	-10.7904
▁speech	-10.7905
▁Outer	-10.7905
▁instances	-10.7915
▁harassment	-10.7917
▁king	-10.7919
▁TV	-10.793
▁transfers	-10.7933
▁Developed	-10.7933
▁Could	-10.7937
▁resolved	-10.7941
▁outreach	-10.7942
▁deeply	-10.7949
▁relationships	-10.795
▁god	-10.7952
▁flexible	-10.7953
▁Everything	-10.7958
▁output	-10.7959
ability	-10.7966
▁organizing	-10.7968
▁Canadian	-10.797
▁assessing	-10.7971
▁defenders	-10.7977
▁consolidation	-10.798
▁machine	-10.7981
▁purchase	-10.7981
ana	-10.7983
▁enforced	-10.7983
▁limitations	-10.7987
▁replacement	-10.7989
▁customary	-10.7997
▁inputs	-10.8003
▁commended	-10.8004
▁Settlements	-10.8004
▁accommodation	-10.8021
▁pursued	-10.8021
▁becomes	-10.8023
▁funny	-10.8033
▁foundation	-10.8038
▁genuine	-10.804
▁realized	-10.8041
▁repatriation	-10.8044
▁hundred	-10.8045
▁innocent	-10.8049
▁colour	-10.8054
▁Keep	-10.8055
▁weapon	-10.8056
▁Educational	-10.8057
▁assumed	-10.8068
▁Date	-10.8069
▁destroy	-10.807
▁Hold	-10.8071
▁grants	-10.8071
▁Luxembourg	-10.8073
▁lands	-10.8076
35	-10.8078
▁Jack	-10.8081
▁separation	-10.8083
lin	-10.8086
▁Relations	-10.8091
▁equipped	-10.8092
▁immigration	-10.8097
▁breach	-10.8103
▁river	-10.8105
▁Question	-10.8109
▁Region	-10.8116
▁Got	-10.8117
▁Life	-10.8117
,600	-10.8127
40	-10.8128
▁soul	-10.8128
▁Against	-10.813
▁reflecting	-10.8138
▁shut	-10.8139
▁ratio	-10.8141
▁count	-10.8142
▁fisheries	-10.8142
▁accountable	-10.8148
sharing	-10.8148
▁ordered	-10.815
▁willing	-10.8151
▁Conventions	-10.8151
▁till	-10.8154
▁Participation	-10.8159
▁Long	-10.8161
▁extrabudgetary	-10.8166
▁Drug	-10.8168
▁professionals	-10.817
▁Help	-10.8171
ated	-10.8171
▁Nicaragua	-10.8173
▁showing	-10.8174
▁ran	-10.8175
▁CRP	-10.8175
ti	-10.8179
70	-10.818
▁renewed	-10.8184
▁protocols	-10.819
▁mercury	-10.8193
▁Arms	-10.8194
▁tank	-10.82
▁votes	-10.8201
,400	-10.8201
keeping	-10.8206
▁derived	-10.8206
▁summer	-10.8213
▁ending	-10.8216
▁recall	-10.8216
▁forthcoming	-10.8217
▁mining	-10.8218
▁houses	-10.8219
▁Post	-10.822
▁pattern	-10.8227
▁sovereign	-10.8234
sh	-10.8234
▁gold	-10.8237
▁freely	-10.8238
93	-10.825
▁submissions	-10.826
▁anyway	-10.8261
▁eventually	-10.8262
Bissau	-10.8268
15	-10.8271
▁Resource	-10.8271
▁Yemen	-10.8279
American	-10.8289
owned	-10.829
▁comprising	-10.8292
per	-10.8293
▁Common	-10.8294
▁Men	-10.8301
▁subjects	-10.8303
▁respected	-10.8303
▁invasion	-10.8305
▁attempts	-10.8307
▁aspect	-10.8311
▁brain	-10.8314
contributing	-10.832
▁environmentally	-10.8324
sen	-10.8328
ny	-10.8331
▁inhabitants	-10.8341
▁contacts	-10.8343
▁Statements	-10.8344
▁dynamic	-10.8344
▁maritime	-10.8346
▁excessive	-10.8348
▁client	-10.8354
▁offering	-10.8358
▁scene	-10.8359
▁kg	-10.8359
,700	-10.8367
▁Increased	-10.8372
▁industries	-10.8372
▁renewable	-10.8374
▁commodity	-10.8377
▁observation	-10.8378
▁micro	-10.8382
▁Hall	-10.8387
19	-10.8387
Terrorism	-10.8395
▁1970	-10.8396
▁stopped	-10.8398
▁mobile	-10.8407
▁intelligence	-10.8423
▁rapidly	-10.8423
▁catch	-10.8425
▁shouldn	-10.8427
▁sentenced	-10.8429
▁Journal	-10.8435
▁dependent	-10.8435
,800	-10.8442
▁root	-10.8449
▁indicator	-10.8458
▁residents	-10.8467
▁Directorate	-10.847
50	-10.8471
▁regarded	-10.8472
▁happening	-10.8473
▁carefully	-10.8473
▁GE	-10.8478
▁District	-10.8479
▁currency	-10.8479
▁Na	-10.848
▁explosive	-10.8492
▁reserve	-10.8492
▁digital	-10.8499
▁linkages	-10.8499
▁depend	-10.8502
▁expulsion	-10.8502
▁Montreal	-10.8509
der	-10.8511
▁Punishment	-10.8511
▁coherent	-10.8518
▁Put	-10.8522
▁Doctor	-10.8525
▁arbitration	-10.8525
▁Art	-10.8526
▁compulsory	-10.8527
▁intensify	-10.8529
▁YOU	-10.8532
▁normally	-10.8535
▁hunger	-10.8535
▁stocks	-10.8538
▁Upon	-10.8541
▁incurred	-10.8542
▁farmers	-10.8545
▁Welcoming	-10.8546
▁Contents	-10.855
▁Captain	-10.8554
▁chain	-10.8561
▁evening	-10.8563
▁dream	-10.8563
▁105	-10.8565
Self	-10.8568
▁Interim	-10.857
▁lay	-10.857
▁Consequently	-10.8572
▁Never	-10.8575
▁union	-10.8578
▁possession	-10.8582
▁Holy	-10.8584
▁Viet	-10.8585
▁headed	-10.8588
▁thereto	-10.8588
▁telephone	-10.8595
ish	-10.8596
▁analytical	-10.8597
▁journalists	-10.8599
▁exposure	-10.86
▁dark	-10.8602
▁elaboration	-10.8602
▁genocide	-10.8606
Governing	-10.8611
▁amounted	-10.8615
▁broken	-10.862
▁Con	-10.8621
▁continent	-10.8623
▁huge	-10.8624
▁Survey	-10.8624
▁competitive	-10.8625
▁Major	-10.8628
▁ESCAP	-10.8633
▁negotiating	-10.8649
▁Doha	-10.865
▁unlawful	-10.8654
au	-10.8655
▁Call	-10.8658
sa	-10.8659
▁ratify	-10.8666
▁Nice	-10.8673
▁loved	-10.8676
▁Appeals	-10.869
▁escape	-10.869
▁Car	-10.8691
▁1,000	-10.8692
11	-10.8695
▁responding	-10.8695
▁delays	-10.8695
▁External	-10.8701
▁Without	-10.8701
25	-10.8703
▁Ho	-10.8704
den	-10.8706
75	-10.8706
▁continuation	-10.8709
▁Least	-10.8711
▁Between	-10.8713
▁Moscow	-10.8713
▁consequence	-10.8716
▁Terrorism	-10.8721
▁patient	-10.8735
▁disseminate	-10.8737
▁university	-10.8739
▁cooperative	-10.874
▁dry	-10.8743
▁110	-10.8743
tic	-10.8747
▁definitions	-10.8752
▁shelter	-10.8753
▁star	-10.8755
▁stronger	-10.8762
▁Commonwealth	-10.8763
▁Former	-10.8768
▁ammunition	-10.877
▁juvenile	-10.8775
▁Fire	-10.8776
▁auspices	-10.8777
▁concepts	-10.8779
ki	-10.878
▁entering	-10.878
▁thousand	-10.8781
,300	-10.8784
▁worst	-10.8785
▁Web	-10.8786
ev	-10.8787
▁concentration	-10.8794
▁dates	-10.8796
▁Communication	-10.8807
▁accurate	-10.8809
▁eligible	-10.881
▁resort	-10.8811
▁coffee	-10.8812
▁formation	-10.8813
▁Swedish	-10.8813
▁assembly	-10.8815
▁Capacity	-10.882
▁preserve	-10.8824
▁receipt	-10.8827
▁addresses	-10.883
▁issuance	-10.8835
▁alternatives	-10.8838
▁Senior	-10.8839
▁yesterday	-10.8839
▁penalties	-10.8842
▁necessarily	-10.8842
▁Light	-10.8842
house	-10.8844
▁eastern	-10.8851
▁load	-10.8853
▁organ	-10.8855
▁promised	-10.8857
.14	-10.8864
▁complement	-10.8871
▁Zambia	-10.8878
▁recalls	-10.8882
tro	-10.8883
▁1984	-10.8884
▁Malta	-10.8885
▁broke	-10.8886
▁fees	-10.8886
▁generated	-10.8887
▁fit	-10.8889
▁convening	-10.889
▁arise	-10.8891
▁Basic	-10.8892
▁necessity	-10.8892
ities	-10.8894
▁Soviet	-10.8895
▁gains	-10.8909
▁mouth	-10.8914
▁underlying	-10.8914
▁Fuck	-10.8916
▁Organized	-10.8925
▁wear	-10.893
▁surveillance	-10.8932
▁Chemical	-10.8936
▁Procurement	-10.894
▁heritage	-10.894
▁stresses	-10.8941
▁Fine	-10.8941
ier	-10.8942
▁facilitated	-10.8943
▁damn	-10.8944
▁Has	-10.8945
▁sales	-10.8951
▁divided	-10.8955
▁declarations	-10.8958
▁insolvency	-10.8962
▁Sahara	-10.8962
▁Provision	-10.8963
▁specify	-10.8964
▁Source	-10.8967
▁threatened	-10.8968
▁contractual	-10.8969
▁combination	-10.8971
▁Burkina	-10.8973
▁excellent	-10.8974
X	-10.8976
▁thereon	-10.8977
▁adult	-10.8977
▁invites	-10.8979
▁clarify	-10.8979
▁possibilities	-10.8992
▁Ta	-10.8997
▁Ni	-10.9001
▁gained	-10.9004
▁Green	-10.901
▁club	-10.9023
▁Workshop	-10.9023
Habitat	-10.9032
▁treat	-10.9036
▁Free	-10.9036
▁caught	-10.9043
▁shift	-10.9044
▁Faso	-10.9045
▁Advancement	-10.9053
▁fired	-10.9058
▁lady	-10.9059
▁window	-10.906
ran	-10.906
▁IT	-10.907
▁exhaust	-10.907
▁fulfilment	-10.9076
▁101	-10.9078
▁merely	-10.9082
▁Combat	-10.9084
▁Five	-10.9084
▁electricity	-10.9086
▁WFP	-10.9089
▁Se	-10.9099
▁conviction	-10.9107
▁di	-10.9107
▁programs	-10.9111
bo	-10.9111
▁Watch	-10.9112
▁anticipated	-10.9116
▁teacher	-10.9121
▁signal	-10.9121
▁managing	-10.9122
▁closing	-10.9123
▁weird	-10.9126
▁clarification	-10.9127
▁consisting	-10.9135
.17	-10.9136
▁orally	-10.9138
▁whereas	-10.9139
depth	-10.914
▁pleasure	-10.914
ga	-10.9143
we	-10.9144
▁1978	-10.9149
▁incentives	-10.9151
12	-10.9151
▁Sector	-10.9152
▁soil	-10.9156
▁el	-10.9157
▁consult	-10.9157
▁employers	-10.9166
▁absolute	-10.9185
▁sun	-10.9188
▁plants	-10.9195
▁branch	-10.92
▁consultants	-10.9203
▁comparison	-10.9203
▁claimant	-10.9208
II	-10.921
▁Protocols	-10.9217
▁Twenty	-10.9219
▁Prohibition	-10.922
▁Situation	-10.9221
ow	-10.9225
▁Next	-10.9225
▁le	-10.9228
▁Benin	-10.9235
21	-10.9235
ang	-10.9236
▁wonder	-10.9237
▁display	-10.9239
▁MONUC	-10.9239
▁depends	-10.924
▁revenue	-10.9244
▁Audit	-10.9246
▁generate	-10.9257
▁Four	-10.9259
▁shoot	-10.9261
▁bitch	-10.9261
▁wastes	-10.9269
▁OSCE	-10.9269
▁ships	-10.9275
▁Strip	-10.9281
▁entrusted	-10.9284
▁Frank	-10.9287
▁Witnesses	-10.929
ham	-10.9291
▁terrible	-10.9296
▁emphasize	-10.9297
▁USD	-10.9297
▁relates	-10.93
▁presidency	-10.9301
▁speaker	-10.9304
▁reductions	-10.9306
▁mutually	-10.9317
▁orientation	-10.9319
▁proud	-10.9324
▁supplementary	-10.9329
▁expanding	-10.9331
ou	-10.9332
▁church	-10.9339
▁planet	-10.9342
▁operative	-10.9345
▁tested	-10.9347
17	-10.9349
▁hearts	-10.9352
▁Robert	-10.9354
▁delegates	-10.9354
▁Articles	-10.9357
▁Reform	-10.9357
95	-10.9371
▁cease	-10.9371
▁persistent	-10.9371
▁Goods	-10.9373
▁ST	-10.9389
▁blue	-10.9391
▁104	-10.9392
▁harmful	-10.9392
▁Something	-10.9394
▁loans	-10.9397
▁memory	-10.9399
▁summit	-10.9403
▁dance	-10.9404
▁sentences	-10.9404
▁candidate	-10.9406
▁liaison	-10.9408
▁Mongolia	-10.941
▁vast	-10.9411
7	-10.9412
▁afternoon	-10.9414
▁Kyrgyzstan	-10.9416
,900	-10.9419
▁ISO	-10.9419
▁certification	-10.942
▁handling	-10.9429
▁generations	-10.9432
▁fraud	-10.9433
AS	-10.9441
▁Durban	-10.9447
▁taught	-10.9448
▁Australian	-10.9451
▁suspected	-10.9462
▁strike	-10.9465
▁Alliance	-10.9465
▁w	-10.947
▁indicating	-10.9471
▁filled	-10.9471
▁presents	-10.9471
▁favourable	-10.9474
▁mothers	-10.9477
▁Everyone	-10.9477
▁deprivation	-10.948
16	-10.9481
▁toward	-10.9481
end	-10.9481
▁desertification	-10.9483
▁Royal	-10.9485
ping	-10.9486
▁approve	-10.9487
▁causing	-10.9495
▁sectoral	-10.9495
▁motion	-10.9499
va	-10.95
▁unions	-10.9501
▁Jo	-10.9502
▁Biological	-10.9508
▁MDGs	-10.9509
▁Mark	-10.9524
▁healthy	-10.9526
▁Moses	-10.9526
▁brothers	-10.9529
▁exceptional	-10.9529
▁1981	-10.9532
96	-10.9533
▁fruit	-10.9533
▁sufficiently	-10.954
-10	-10.9542
▁Transnational	-10.9544
80	-10.9547
▁Basel	-10.9548
▁fresh	-10.9549
▁trials	-10.9551
▁minors	-10.9553
▁Ocean	-10.9555
99	-10.9556
▁IMF	-10.9557
▁carrier	-10.9558
▁villages	-10.9565
ex	-10.9565
▁methodologies	-10.9565
.19	-10.9566
▁luck	-10.9571
39	-10.9572
▁themes	-10.9572
▁Jamahiriya	-10.9579
▁Voluntary	-10.958
,100	-10.9581
▁anybody	-10.9583
▁prospects	-10.9584
▁navigation	-10.9589
▁providers	-10.9594
▁Atomic	-10.9595
▁accomplishments	-10.9607
▁smaller	-10.9608
▁uniform	-10.9612
▁memorandum	-10.9614
▁liberalization	-10.9615
ey	-10.9617
▁trip	-10.9617
▁lamp	-10.9618
▁manufacture	-10.9619
ut	-10.9621
▁Cuban	-10.9623
▁RIGHTS	-10.9626
vis	-10.9627
▁province	-10.9628
▁student	-10.9629
▁entirely	-10.963
▁classes	-10.9644
▁saved	-10.9651
▁Home	-10.9651
▁Whatever	-10.9653
▁abuses	-10.9655
▁permits	-10.9657
▁Independence	-10.966
▁reinforce	-10.9665
▁Iceland	-10.9669
▁originally	-10.9672
▁mobilize	-10.9674
▁Appendix	-10.9675
▁Type	-10.968
▁involves	-10.9681
▁Zimbabwe	-10.9683
gen	-10.9685
▁authorization	-10.9686
ster	-10.9687
▁statute	-10.9691
▁millions	-10.9693
▁depending	-10.9696
▁formulate	-10.9696
▁scared	-10.9697
.18	-10.9698
▁deny	-10.9701
▁eighth	-10.9702
▁regimes	-10.9706
-6	-10.971
▁tribunal	-10.9717
▁interview	-10.9721
▁repeated	-10.9721
▁2002-2003	-10.973
zi	-10.9737
▁Professor	-10.974
▁mobility	-10.974
▁Analysis	-10.9741
▁image	-10.9744
ig	-10.9746
▁false	-10.9748
▁Per	-10.9749
▁adults	-10.9751
ji	-10.9751
▁consumer	-10.9752
mi	-10.9753
▁Panama	-10.9758
▁Legislative	-10.976
▁Case	-10.9761
▁Matters	-10.9767
.20	-10.9771
▁provinces	-10.9773
net	-10.9779
▁falling	-10.9791
▁lying	-10.9792
▁conducive	-10.9793
▁ozone	-10.9794
▁transaction	-10.98
▁forever	-10.9801
▁Studies	-10.9803
▁somewhere	-10.9804
▁enshrined	-10.9806
▁wake	-10.9807
▁zero	-10.9815
▁obtaining	-10.9821
55	-10.9823
▁excluded	-10.9823
▁attributable	-10.9824
ud	-10.9825
▁congratulate	-10.9825
▁spending	-10.9826
▁afford	-10.9826
▁wind	-10.9831
▁250	-10.9832
▁imperative	-10.984
▁unity	-10.9841
▁Ten	-10.9841
io	-10.9843
▁tree	-10.9844
▁parliamentary	-10.9844
ten	-10.9844
▁whenever	-10.9845
▁103	-10.9848
▁referring	-10.9852
▁tel	-10.9854
.16	-10.9857
▁translated	-10.9868
▁Consultative	-10.9869
▁sweet	-10.987
▁proceeds	-10.9873
▁match	-10.9882
▁evaluations	-10.9886
▁FDI	-10.9888
▁ecosystems	-10.9889
▁Facility	-10.9889
ja	-10.989
ap	-10.9892
▁Martin	-10.9893
37	-10.9905
▁convene	-10.9906
▁businesses	-10.991
▁manual	-10.9911
ard	-10.9911
▁passing	-10.9913
▁whereby	-10.9917
▁cultures	-10.9918
▁encountered	-10.9919
▁provincial	-10.992
▁appoint	-10.992
▁Bye	-10.9925
▁remarks	-10.9926
▁reserves	-10.9929
▁describe	-10.993
ari	-10.9931
▁symbol	-10.9935
▁competitiveness	-10.9937
▁UNMIK	-10.9938
▁Out	-10.9944
▁Establishment	-10.9947
▁apart	-10.9953
▁vacancy	-10.9956
▁refrain	-10.9957
▁mistake	-10.9962
▁calendar	-10.9964
▁shape	-10.9965
po	-10.9966
▁underlined	-10.9967
▁officially	-10.9972
▁rail	-10.9979
▁cancer	-10.998
▁meaningful	-10.9985
▁granting	-10.9987
▁atmosphere	-10.9987
▁suspended	-10.9993
▁Stockholm	-10.9993
▁awarded	-11.0004
▁fail	-11.0007
ES	-11.001
▁UNIFEM	-11.0013
▁Register	-11.0015
▁Culture	-11.0021
▁eliminating	-11.0026
▁parameters	-11.0028
77	-11.0037
▁universities	-11.0041
▁COMMISSION	-11.0045
so	-11.0045
14	-11.0051
▁elsewhere	-11.0053
▁finished	-11.0055
65	-11.0061
▁Conduct	-11.0063
46	-11.0066
▁CAT	-11.007
▁permission	-11.0075
▁battle	-11.0076
ee	-11.0077
▁Mozambique	-11.0078
▁Ali	-11.0079
▁Ka	-11.0092
▁hang	-11.0095
▁frame	-11.0099
▁rock	-11.01
▁significance	-11.0103
▁believers	-11.0105
he	-11.0106
▁founded	-11.0107
▁calm	-11.0111
border	-11.0111
▁parent	-11.0112
▁existed	-11.0117
▁beat	-11.0119
▁Young	-11.012
▁inquiry	-11.0125
▁balances	-11.0128
▁weren	-11.0131
▁observance	-11.0137
▁paying	-11.0137
▁Muslim	-11.0139
▁ODA	-11.0141
▁landlocked	-11.0148
▁Concerning	-11.0153
▁bridge	-11.0153
▁suspect	-11.0156
▁portion	-11.016
▁kinds	-11.0162
23	-11.0164
▁Muhammad	-11.0164
item	-11.0166
min	-11.0167
▁Production	-11.0167
▁attitudes	-11.0173
▁injuries	-11.0174
▁Pension	-11.0176
▁strictly	-11.0177
▁Proposed	-11.0177
▁diverse	-11.0177
▁2010-2011	-11.0177
▁regulate	-11.0181
▁Up	-11.0182
▁initiate	-11.0184
▁Perhaps	-11.0186
▁mode	-11.0187
ists	-11.0188
im	-11.0189
27	-11.019
▁patients	-11.019
▁accelerate	-11.0194
▁initially	-11.0196
▁Company	-11.0197
▁Round	-11.0197
▁prevented	-11.0205
▁tangible	-11.0212
▁director	-11.0216
▁Closed	-11.0218
▁messages	-11.0218
▁retained	-11.0218
▁Korean	-11.0219
▁reward	-11.022
▁tons	-11.0223
▁Academy	-11.0223
▁pull	-11.0224
▁111	-11.0228
▁TRADE	-11.023
▁belong	-11.023
▁liabilities	-11.0231
si	-11.0239
▁102	-11.0248
0	-11.0254
ot	-11.0254
▁Pan	-11.026
▁prosecutors	-11.0266
let	-11.0268
▁Namibia	-11.027
for	-11.0271
▁1973	-11.0271
▁monitored	-11.0273
▁facto	-11.0282
▁store	-11.0285
▁wood	-11.0287
▁Liechtenstein	-11.0287
▁formula	-11.029
▁wedding	-11.0293
▁Medical	-11.0294
56	-11.0298
13	-11.0299
▁inland	-11.03
▁acquire	-11.0301
op	-11.0302
▁deadline	-11.0302
-8	-11.0303
▁establishes	-11.0306
▁codes	-11.0311
▁visible	-11.0312
▁bought	-11.0316
▁firms	-11.0317
▁pregnancy	-11.0318
▁rear	-11.0321
▁sitting	-11.0323
▁metal	-11.0323
▁assure	-11.0326
▁Seminar	-11.0327
▁destination	-11.033
▁inequality	-11.0332
▁contents	-11.0333
▁heat	-11.0337
▁yours	-11.0344
▁occasions	-11.0346
▁vi	-11.0348
ker	-11.0352
06	-11.0357
ik	-11.036
▁mad	-11.0372
▁twentieth	-11.0373
▁tanks	-11.0376
▁sight	-11.038
▁ninth	-11.0382
▁airport	-11.0385
▁closure	-11.0386
▁advances	-11.0388
▁reaffirm	-11.0389
▁Jewish	-11.0394
▁GC	-11.0396
▁subregion	-11.0397
▁literacy	-11.0401
▁Hague	-11.0403
▁Equal	-11.0405
▁exposed	-11.0406
▁beneficiaries	-11.0407
▁restore	-11.0407
▁plus	-11.0409
▁106	-11.041
▁throw	-11.041
▁ocean	-11.0413
▁lamps	-11.0417
▁compilation	-11.0418
▁stipulated	-11.0421
▁Expresse	-11.0421
▁107	-11.0431
90	-11.044
▁waters	-11.044
▁sports	-11.0448
24	-11.0463
▁boss	-11.0466
▁divorce	-11.0466
▁files	-11.0469
▁Mother	-11.0474
▁redress	-11.0479
▁emphasizes	-11.048
▁annexes	-11.0481
▁installation	-11.0481
▁clearance	-11.0482
▁bag	-11.0482
▁108	-11.0483
▁hide	-11.0484
▁Freedom	-11.0484
▁column	-11.0484
▁anywhere	-11.0487
▁expectations	-11.0489
▁impose	-11.0493
▁massive	-11.0493
▁Subsequent	-11.0496
▁interactive	-11.05
▁rising	-11.0501
▁agent	-11.0502
▁Church	-11.0506
9	-11.0507
▁instruction	-11.0507
month	-11.051
▁Conflict	-11.0513
▁route	-11.0513
▁England	-11.0515
personnel	-11.0518
▁UK	-11.0519
▁Ex	-11.0521
over	-11.0522
▁Richard	-11.0523
▁outline	-11.0523
38	-11.0524
▁opinions	-11.0527
▁hatred	-11.0535
▁PC	-11.0538
mer	-11.0542
▁bottom	-11.0544
▁worried	-11.0544
▁BY	-11.0551
08	-11.0555
▁targeting	-11.0561
▁miles	-11.0561
▁2.1	-11.0562
▁Directive	-11.0563
▁regret	-11.0564
94	-11.0567
▁progressive	-11.0568
▁Back	-11.0569
▁Hong	-11.0571
▁ha	-11.0572
▁producing	-11.0573
▁verbale	-11.0575
▁salaries	-11.0575
service	-11.0575
▁blind	-11.0576
▁mercy	-11.0579
▁modified	-11.0579
▁ADR	-11.0579
▁killer	-11.0582
▁Disaster	-11.059
▁sounds	-11.0593
▁movie	-11.0602
▁willingness	-11.0604
▁Area	-11.0604
▁Organizations	-11.0604
▁Stay	-11.0605
▁Mine	-11.0609
▁112	-11.061
▁obliged	-11.0611
▁Housing	-11.0616
▁suggests	-11.062
▁reproduced	-11.0621
▁Judge	-11.0622
▁del	-11.0622
57	-11.0626
▁prosecutor	-11.0627
▁ministers	-11.0629
Aligned	-11.063
▁transformation	-11.063
ru	-11.0632
▁deeds	-11.0634
▁Master	-11.0635
▁Relief	-11.0636
▁Participants	-11.0639
▁Ro	-11.0642
18	-11.0643
▁operated	-11.0649
▁busy	-11.065
▁hosted	-11.0655
▁classified	-11.0659
▁presentations	-11.066
laundering	-11.0663
board	-11.0663
66	-11.0664
har	-11.0668
▁capability	-11.0669
05	-11.0675
▁Sch	-11.0679
▁stipulates	-11.0683
▁DP	-11.0685
▁super	-11.0687
▁restoration	-11.0687
▁credibility	-11.069
▁duplication	-11.0694
▁Branch	-11.0698
▁400	-11.0702
▁fulfilled	-11.0707
▁macroeconomic	-11.0708
78	-11.0709
▁NEPAD	-11.071
▁formally	-11.071
▁hopes	-11.0711
▁reaffirms	-11.0715
▁indication	-11.0723
49	-11.0728
▁Dialogue	-11.0733
▁disadvantaged	-11.0736
▁complementary	-11.0736
▁sum	-11.0738
▁undermine	-11.0749
▁gift	-11.075
▁bus	-11.0751
▁Ensure	-11.0756
▁thy	-11.0756
▁theory	-11.0756
▁manufacturing	-11.0759
▁consolidate	-11.0762
▁violate	-11.0766
uk	-11.0768
▁Sa	-11.0771
▁spare	-11.0773
▁Best	-11.0774
▁owned	-11.0775
58	-11.078
▁animals	-11.0781
▁Dec	-11.0787
▁Love	-11.0792
28	-11.0792
▁roads	-11.0797
85	-11.0797
▁drafted	-11.0798
je	-11.0799
▁attitude	-11.0802
▁difficulty	-11.0803
▁swear	-11.0808
back	-11.081
▁Su	-11.081
33	-11.0811
▁submitting	-11.0814
▁wearing	-11.0817
▁opposed	-11.0818
▁motor	-11.0822
▁cells	-11.0823
▁1979	-11.0823
▁marry	-11.0826
▁finish	-11.0827
▁gratitude	-11.0833
▁dropped	-11.0837
▁confirm	-11.0837
ani	-11.0838
▁sixtieth	-11.0841
▁hospitals	-11.0842
▁consistently	-11.0844
▁1960	-11.0845
▁adolescents	-11.0845
▁Reference	-11.0848
▁Had	-11.0851
▁defend	-11.0853
▁counselling	-11.0854
▁Actually	-11.0854
▁Mediterranean	-11.0856
▁watching	-11.0866
▁firmly	-11.0869
▁Ne	-11.087
▁obvious	-11.0873
▁disciplinary	-11.0876
▁Vol	-11.0879
▁Ban	-11.088
73	-11.0881
▁Sha	-11.0881
▁referendum	-11.0881
▁discovered	-11.0881
▁ring	-11.0882
▁foreigners	-11.0883
▁boat	-11.089
▁van	-11.0891
▁compromise	-11.0891
▁explicitly	-11.0897
▁exclusively	-11.0899
▁Workers	-11.09
▁Institutions	-11.0901
▁updating	-11.0905
▁substantially	-11.0907
▁crew	-11.0907
fa	-11.0909
▁phrase	-11.0911
han	-11.0911
▁IX	-11.0913
▁Natural	-11.0915
▁elderly	-11.0916
▁limitation	-11.0918
les	-11.0921
▁Ko	-11.0921
▁greenhouse	-11.0921
▁forgive	-11.0922
▁stood	-11.0923
▁ice	-11.0923
▁talked	-11.0926
▁performing	-11.0929
▁Dominican	-11.093
▁Study	-11.093
▁inflation	-11.0933
▁amazing	-11.0937
▁favor	-11.0941
▁subsidies	-11.0943
▁easier	-11.0947
▁Henry	-11.0949
▁systematically	-11.095
▁grown	-11.095
▁foot	-11.0951
07	-11.0956
▁eradicate	-11.0959
▁logistical	-11.096
▁Kong	-11.0961
▁profile	-11.0969
▁offset	-11.097
-7	-11.0972
67	-11.0979
▁partial	-11.0979
▁Syria	-11.0981
▁Somali	-11.0983
▁Shut	-11.0987
▁finalized	-11.099
AL	-11.0992
▁optional	-11.0992
▁animal	-11.0996
▁trans	-11.0999
▁suicide	-11.1007
▁distinct	-11.1011
our	-11.1016
▁decent	-11.1016
▁College	-11.1027
▁disclosure	-11.1028
▁surrounding	-11.1038
▁Still	-11.1038
▁hotel	-11.1038
▁imagine	-11.1042
▁Emirates	-11.1044
▁suggestion	-11.1047
▁recruited	-11.1047
87	-11.1049
▁1983	-11.1054
▁Remember	-11.1054
▁herself	-11.1057
▁assignment	-11.1059
▁Gu	-11.1063
▁cast	-11.1072
▁Industry	-11.1072
int	-11.1073
▁east	-11.1073
▁exceeding	-11.1074
▁associate	-11.1078
▁Honduras	-11.108
▁1975	-11.1081
▁briefings	-11.1085
▁organic	-11.1086
▁municipalities	-11.1087
▁Mike	-11.1088
▁durable	-11.1089
▁115	-11.1093
▁honey	-11.1095
▁GRE	-11.1096
▁games	-11.1098
▁spiritual	-11.11
79	-11.1102
▁ORIGINAL	-11.1103
▁immigrants	-11.1103
isation	-11.1104
▁dollar	-11.1105
▁Forests	-11.1108
▁01	-11.1111
▁accidents	-11.1115
▁se	-11.1121
▁Reporting	-11.1122
▁sustain	-11.1123
▁Swiss	-11.1126
▁analyse	-11.1126
lan	-11.1127
▁Mi	-11.1128
▁faces	-11.1129
▁focuses	-11.113
▁recording	-11.113
▁Manual	-11.1132
▁teach	-11.1133
▁surprise	-11.1138
▁bis	-11.1139
▁Pa	-11.114
▁enjoyed	-11.114
ab	-11.1142
▁Efforts	-11.1142
▁relatives	-11.1143
▁brings	-11.1143
▁Hell	-11.1146
ura	-11.1147
▁communicate	-11.1148
22	-11.1148
▁manifest	-11.1154
▁alien	-11.1165
▁administered	-11.1168
▁decree	-11.1174
▁Charles	-11.1174
01	-11.1174
▁leads	-11.1175
bar	-11.1175
▁arm	-11.1177
▁withdraw	-11.1178
▁enhancement	-11.1179
▁exploration	-11.118
▁Whoa	-11.1181
▁Bahrain	-11.1182
▁Christians	-11.1185
▁potentially	-11.1186
▁observe	-11.1186
▁Christmas	-11.1186
SA	-11.1186
▁enabled	-11.1188
▁apparent	-11.1193
▁prohibit	-11.1198
▁beings	-11.1199
▁highlight	-11.1202
▁ensured	-11.1202
▁pour	-11.1207
▁kilometres	-11.121
▁assurances	-11.1212
▁justified	-11.1213
▁ultimately	-11.1214
▁chaired	-11.1215
▁sending	-11.1219
▁Corruption	-11.122
▁Related	-11.1222
ring	-11.1228
▁Te	-11.1229
Agency	-11.1232
▁Commander	-11.1232
ology	-11.1232
dy	-11.1235
▁sake	-11.1237
▁elaborate	-11.1238
▁CIS	-11.1239
▁Officers	-11.1247
▁concerted	-11.125
▁evident	-11.1255
▁guard	-11.1259
▁deleted	-11.126
▁Someone	-11.1264
▁Park	-11.1266
▁taxes	-11.1266
76	-11.1267
red	-11.1267
▁warrant	-11.1272
▁engineering	-11.1278
▁cited	-11.1278
▁commodities	-11.1281
▁fix	-11.1281
ck	-11.1282
▁separated	-11.1284
▁argument	-11.1284
▁publicly	-11.1284
▁integrating	-11.1284
▁contrast	-11.1287
▁Attorney	-11.1288
▁returning	-11.129
President	-11.129
▁nutrition	-11.1292
▁termination	-11.1305
▁109	-11.1306
▁nobody	-11.1307
▁coordinator	-11.1311
bi	-11.1312
▁attacked	-11.1318
▁honor	-11.1318
▁admissibility	-11.1319
▁TD	-11.1319
▁emergencies	-11.1323
▁disappearance	-11.1327
▁elect	-11.1327
▁Catholic	-11.1328
▁mixed	-11.1331
72	-11.1332
▁viable	-11.1333
▁drought	-11.1335
ong	-11.1337
▁adjusted	-11.1338
▁Street	-11.1343
48	-11.1344
04	-11.1347
▁hundreds	-11.1352
▁thorough	-11.1354
▁malaria	-11.1355
▁intends	-11.1355
▁1.2	-11.1356
▁channels	-11.1356
▁admit	-11.1358
▁Addendum	-11.136
▁mitigate	-11.1372
▁skin	-11.1372
▁IDB	-11.1374
▁excuse	-11.1376
▁participatory	-11.1378
▁Damn	-11.1385
▁promptly	-11.1387
▁Target	-11.1391
▁HUMAN	-11.1397
▁enforce	-11.1407
▁departure	-11.1408
▁loan	-11.1409
▁defining	-11.1415
▁merits	-11.1423
▁apartment	-11.1424
chi	-11.1426
▁workplace	-11.1426
▁appropriation	-11.1429
▁studied	-11.1429
▁Bearing	-11.1433
▁possess	-11.1433
▁pool	-11.1433
compliance	-11.1435
▁Logistics	-11.1436
▁attract	-11.1439
▁prosecute	-11.144
▁UNIFIL	-11.1441
▁Forest	-11.1442
▁corporations	-11.1444
▁punish	-11.1445
▁indirect	-11.1445
44	-11.1448
▁passenger	-11.1449
▁penal	-11.1452
29	-11.1452
▁stories	-11.1457
ass	-11.1459
▁Paraguay	-11.146
▁marking	-11.1462
▁installed	-11.1465
▁Unfortunately	-11.1467
▁feature	-11.1469
00	-11.1471
▁Nobody	-11.1474
▁1949	-11.1476
▁3.2	-11.148
▁roll	-11.1482
▁impartial	-11.1485
▁complexity	-11.1485
▁clothes	-11.1486
▁subsistence	-11.1487
▁owner	-11.1487
▁ceasefire	-11.149
▁declare	-11.1496
▁clients	-11.1496
▁Hmm	-11.1497
▁suspension	-11.1498
▁Contributions	-11.1499
▁characterized	-11.1503
86	-11.1504
.25	-11.1508
▁urgency	-11.1513
69	-11.1514
▁decreased	-11.1514
▁mainstream	-11.1514
▁2.2	-11.1518
▁ECONOMIC	-11.1518
▁2.5	-11.152
▁weather	-11.1524
▁survival	-11.1528
▁kidding	-11.1528
▁comparative	-11.1533
▁Amend	-11.1536
IA	-11.1536
▁contemporary	-11.1537
41	-11.1539
▁Library	-11.1539
▁116	-11.1545
▁separately	-11.1546
▁Port	-11.1547
▁regulated	-11.1551
▁Until	-11.1552
▁fiftieth	-11.1553
52	-11.1555
▁organisations	-11.1555
▁fat	-11.1558
ara	-11.1559
▁convey	-11.1561
ron	-11.1564
▁Turkmenistan	-11.1566
▁warm	-11.1567
97	-11.1567
▁endeavour	-11.1568
▁measuring	-11.157
▁Jan	-11.1571
▁gathered	-11.1576
▁Adam	-11.1577
▁employer	-11.1578
sk	-11.1581
▁negotiated	-11.1583
▁Electronic	-11.1585
▁ride	-11.1587
▁exclusive	-11.1592
▁Property	-11.1593
AC	-11.16
▁differ	-11.1601
▁taste	-11.1603
▁Provide	-11.1605
▁annexed	-11.1606
................	-11.1609
▁resume	-11.1609
▁Unity	-11.1613
▁plays	-11.1614
▁Traffic	-11.1618
▁MP	-11.1622
▁satisfactory	-11.1622
▁Leave	-11.1628
▁enormous	-11.1632
▁tend	-11.1633
▁None	-11.1637
▁delayed	-11.164
▁sole	-11.1641
▁birthday	-11.1641
▁dual	-11.1645
ite	-11.1647
▁error	-11.1652
▁solely	-11.1653
▁gases	-11.1654
▁fate	-11.1659
▁Judicial	-11.1661
▁missed	-11.1663
lu	-11.1664
▁interference	-11.1665
▁Program	-11.1672
▁Joseph	-11.1672
▁leg	-11.1673
▁wording	-11.1677
▁severely	-11.168
▁height	-11.1683
▁harmonized	-11.1688
▁investigated	-11.1689
▁servicing	-11.1691
▁appendix	-11.1692
▁rely	-11.1697
▁crossing	-11.1707
▁railway	-11.1707
▁wages	-11.1712
▁stands	-11.1714
▁ageing	-11.1716
▁Sales	-11.1717
▁investigating	-11.1718
.21	-11.1721
▁prevailing	-11.1722
▁Har	-11.1723
47	-11.1723
▁Violations	-11.1725
▁inherent	-11.1727
▁strive	-11.1728
▁solve	-11.173
▁workload	-11.1733
▁historic	-11.1734
▁insecurity	-11.1735
64	-11.1736
ator	-11.1737
▁females	-11.1742
ens	-11.1742
ward	-11.1744
▁Effective	-11.1746
▁governed	-11.1746
▁considerably	-11.1747
▁Test	-11.175
hu	-11.1751
▁feelings	-11.1751
▁Think	-11.1752
▁pose	-11.1755
▁reminded	-11.1759
▁Jean	-11.1762
▁Iranian	-11.1763
▁Disabilities	-11.1766
▁politics	-11.177
▁remuneration	-11.1772
▁Fiji	-11.1772
af	-11.1775
▁extraordinary	-11.1775
▁settled	-11.1778
▁02	-11.178
▁Express	-11.178
ris	-11.178
▁Base	-11.1784
▁urgently	-11.1785
▁Taliban	-11.1786
▁pace	-11.1786
26	-11.179
▁liable	-11.1794
▁wonderful	-11.1795
▁mediation	-11.1799
▁Grand	-11.18
▁footnote	-11.1804
▁demographic	-11.1805
▁telecommunicati	-11.1808
▁Private	-11.1809
▁credible	-11.181
▁pursuit	-11.1812
EN	-11.1813
ile	-11.1819
▁producers	-11.182
▁Systems	-11.182
▁117	-11.1821
▁admitted	-11.1821
▁ruling	-11.1823
▁references	-11.1824
▁readiness	-11.1825
▁appreciated	-11.1831
▁Forty	-11.1836
▁spring	-11.1837
▁Nor	-11.1841
▁Promoting	-11.1841
▁Multilateral	-11.1844
▁applicant	-11.1844
▁consistency	-11.1847
▁Conclusions	-11.1847
all	-11.1848
▁minimize	-11.1848
MS	-11.1849
▁Monetary	-11.185
▁Responsible	-11.185
▁grade	-11.1853
▁regrets	-11.1856
▁Operational	-11.1862
84	-11.1867
▁114	-11.1868
ec	-11.187
▁1.5	-11.1871
kin	-11.1874
▁punished	-11.1874
▁advise	-11.1875
▁expressing	-11.1875
em	-11.1875
▁Envoy	-11.1876
ze	-11.1876
▁adapt	-11.1876
▁Electoral	-11.1877
▁122	-11.1878
▁gathering	-11.1879
▁Opening	-11.188
▁imports	-11.1888
▁Blue	-11.189
▁preceding	-11.1893
IC	-11.1894
▁nevertheless	-11.1896
ok	-11.1899
ane	-11.1902
83	-11.1904
▁feasible	-11.1905
▁analyses	-11.1905
▁tackle	-11.1908
▁photo	-11.1909
▁Daniel	-11.191
▁justification	-11.1911
▁Marine	-11.1912
▁repeatedly	-11.1915
▁hostilities	-11.1916
▁sphere	-11.1917
ez	-11.1919
wi	-11.1925
cutting	-11.1925
▁100,000	-11.1927
ped	-11.1928
▁duly	-11.1929
▁slavery	-11.1929
▁satisfied	-11.193
ip	-11.1931
OR	-11.1931
36	-11.1933
▁safeguard	-11.1934
▁heaven	-11.1937
▁comparable	-11.1937
▁Desertification	-11.1938
▁1.1	-11.1942
▁appointments	-11.1942
▁Racism	-11.1949
mar	-11.1949
▁130	-11.1951
▁reimbursement	-11.1958
▁block	-11.1964
▁accounted	-11.1965
▁absolutely	-11.1966
▁oh	-11.1966
▁manager	-11.197
▁offenders	-11.1972
▁ecosystem	-11.1975
▁center	-11.1977
▁Serious	-11.1982
▁emerged	-11.1982
▁racist	-11.1986
▁Son	-11.1989
fi	-11.1993
▁heavily	-11.1997
▁immunity	-11.1997
▁Inhuman	-11.1997
▁3.1	-11.1998
▁sad	-11.1999
▁Thomas	-11.2006
You	-11.2007
68	-11.2008
▁Johannesburg	-11.2012
▁momentum	-11.2014
hi	-11.2014
▁lucky	-11.2019
▁000	-11.2026
ER	-11.2027
▁mountain	-11.2028
▁ibid	-11.2029
▁smart	-11.2031
▁declined	-11.2033
▁Goal	-11.2033
pursuing	-11.2036
81	-11.2044
▁Roman	-11.2047
▁serves	-11.2047
▁Messenger	-11.205
▁blame	-11.2053
▁Star	-11.2055
▁contracting	-11.2057
▁Illicit	-11.2057
▁maternity	-11.2059
▁smoke	-11.2059
▁foundations	-11.206
▁viewed	-11.2062
▁assault	-11.2063
▁flag	-11.2065
▁quantity	-11.2067
▁pornography	-11.2067
98	-11.2068
▁Show	-11.2069
▁Brussels	-11.2075
▁investors	-11.2084
71	-11.2088
gi	-11.209
▁Background	-11.2094
▁fly	-11.2097
▁feed	-11.2101
▁wishing	-11.2104
▁Outcome	-11.2105
jo	-11.2109
▁usual	-11.212
▁comprises	-11.213
▁condemned	-11.213
▁employee	-11.2133
▁suit	-11.2136
▁retirement	-11.2139
▁evolution	-11.2141
▁Monterrey	-11.2143
▁synergies	-11.2144
▁databases	-11.2147
▁coal	-11.2147
▁perspectives	-11.2152
▁Radio	-11.2152
▁Documents	-11.2158
▁executions	-11.216
▁county	-11.216
▁unknown	-11.2164
▁logistics	-11.2164
▁rent	-11.2165
▁lo	-11.2165
▁EMEP	-11.2166
▁hath	-11.2167
▁Agricultural	-11.217
.24	-11.2178
▁Togo	-11.218
32	-11.2181
▁deserve	-11.2182
59	-11.2185
▁refusal	-11.2185
▁spite	-11.2188
▁definitely	-11.219
▁Line	-11.2193
▁rendered	-11.2194
▁Aid	-11.2197
▁suppliers	-11.2197
▁Market	-11.2198
▁Unless	-11.2207
East	-11.221
▁medicine	-11.2211
▁inspections	-11.2212
point	-11.2214
▁Da	-11.2218
▁Shit	-11.2219
▁shortly	-11.2222
vo	-11.2222
▁outset	-11.2223
▁conversion	-11.2223
seekers	-11.2225
tal	-11.2226
43	-11.2227
▁attempted	-11.2233
▁sponsored	-11.2234
▁precise	-11.2236
▁Effects	-11.2236
▁college	-11.224
42	-11.2247
▁turning	-11.2248
▁Powers	-11.225
▁tired	-11.2258
▁executed	-11.2259
▁bomb	-11.2259
▁wherever	-11.2259
▁Isn	-11.2261
▁fellow	-11.2263
side	-11.2266
effective	-11.2266
▁benefited	-11.2267
▁refuse	-11.2267
▁testimony	-11.2269
▁frequency	-11.2269
▁Diversity	-11.227
▁assumption	-11.2272
▁DC	-11.2272
▁Proposal	-11.2274
▁partly	-11.2275
aw	-11.2276
▁aside	-11.2282
RE	-11.2282
▁electrical	-11.2283
▁Lao	-11.2283
▁meat	-11.2284
▁radiation	-11.2286
▁advisers	-11.2286
▁113	-11.2287
▁Djibouti	-11.2288
▁feels	-11.2289
▁constitution	-11.2291
▁estate	-11.2291
▁settle	-11.2292
▁Ki	-11.2293
▁marginalized	-11.2294
.26	-11.2295
▁incidence	-11.2295
que	-11.2296
▁correspond	-11.2297
iv	-11.2299
▁thanked	-11.2301
▁180	-11.2303
▁Administrator	-11.2304
▁Amendment	-11.2306
▁Big	-11.2307
▁curricula	-11.2307
ence	-11.2311
▁Series	-11.2312
53	-11.2315
▁Surely	-11.2319
▁fax	-11.232
▁Kuwaiti	-11.2321
▁friendly	-11.2322
ld	-11.2327
▁monetary	-11.2328
54	-11.2335
▁remind	-11.2335
▁deterioration	-11.2338
▁enrolment	-11.234
▁forestry	-11.2341
IS	-11.2342
▁Civilian	-11.2344
Q	-11.2344
law	-11.2346
51	-11.2349
▁religions	-11.2351
▁makers	-11.2353
▁NO	-11.2355
▁answers	-11.2365
▁verify	-11.2367
▁argued	-11.2367
▁Personal	-11.2369
▁Us	-11.2371
▁Sometimes	-11.2372
▁Key	-11.2372
▁140	-11.2377
▁properties	-11.2377
88	-11.2379
▁fulfilling	-11.2384
▁UNITAR	-11.2393
▁cars	-11.2398
▁push	-11.24
▁118	-11.2401
cha	-11.2403
▁preparedness	-11.2404
▁extending	-11.2404
TH	-11.2405
ible	-11.2408
▁resistance	-11.2413
▁confidential	-11.2415
▁Cypriot	-11.2419
▁elaborated	-11.2423
03	-11.2424
89	-11.2424
▁wondered	-11.2426
▁600	-11.2426
▁Barbados	-11.2426
▁Transfer	-11.2427
▁Prosecution	-11.2427
▁conform	-11.2431
34	-11.2434
▁ECOWAS	-11.2434
▁prosperity	-11.2436
▁color	-11.245
▁honest	-11.2452
▁Tu	-11.2454
▁doctors	-11.2455
▁Future	-11.2456
▁Eurostat	-11.2457
▁1977	-11.2463
▁enacted	-11.2463
▁CMP	-11.2465
74	-11.2468
▁Degrading	-11.247
▁engaging	-11.247
▁lunch	-11.2476
▁glass	-11.2477
▁advantages	-11.2479
▁Welcome	-11.248
▁cards	-11.2482
▁rain	-11.2484
▁Stresses	-11.2486
UN	-11.2496
▁Capital	-11.2496
▁interpreted	-11.2501
-20	-11.2502
▁Jews	-11.2503
▁coast	-11.2503
▁Ja	-11.2505
▁125	-11.2509
▁obviously	-11.251
▁Po	-11.2518
▁upper	-11.2525
▁Atlantic	-11.2525
▁1974	-11.2528
▁119	-11.2529
▁blow	-11.2536
▁holds	-11.2537
▁da	-11.254
▁exchanges	-11.254
▁girlfriend	-11.254
▁hamper	-11.2541
▁assurance	-11.2542
▁Madrid	-11.2551
▁Colonial	-11.2552
▁Li	-11.2554
▁Volunteers	-11.2558
▁capita	-11.256
▁collaborate	-11.256
▁slightly	-11.2565
ai	-11.2566
▁appraisal	-11.257
▁quiet	-11.2572
▁creditors	-11.2572
▁visiting	-11.2574
▁Narcotic	-11.2575
▁aliens	-11.2576
▁belongs	-11.2577
▁desirable	-11.2577
head	-11.2578
▁certificates	-11.2579
▁grew	-11.2579
▁Victims	-11.2581
▁sampling	-11.2582
▁registry	-11.2584
▁preservation	-11.2585
▁Vi	-11.2587
▁whoever	-11.2587
▁exact	-11.2597
▁library	-11.2598
▁driven	-11.2605
▁seconds	-11.2608
▁utmost	-11.2613
▁4.1	-11.2613
▁prayer	-11.2614
▁Huh	-11.2614
▁Granting	-11.2615
▁contractors	-11.2617
▁jail	-11.2618
▁districts	-11.2619
▁strange	-11.2621
▁attendance	-11.2621
▁essentially	-11.2625
▁lock	-11.2626
▁William	-11.2627
▁budgeting	-11.2633
▁gradually	-11.2634
mm	-11.2637
▁Governor	-11.2638
▁passengers	-11.2641
▁nominated	-11.2647
▁flying	-11.2649
▁XI	-11.2651
▁validity	-11.2655
▁Appeal	-11.2656
▁securing	-11.2656
▁style	-11.2659
▁endorse	-11.2662
▁Consider	-11.2665
▁restraint	-11.2666
▁arrival	-11.2671
▁Urban	-11.2672
▁ball	-11.2672
▁Instead	-11.2674
▁checked	-11.2677
ice	-11.2678
ably	-11.2682
▁turns	-11.2684
02	-11.2686
▁decolonization	-11.269
▁disappeared	-11.2691
▁towns	-11.2695
ise	-11.2698
nuclear	-11.2699
▁Cape	-11.2702
09	-11.2706
▁ultimate	-11.2706
▁123	-11.2709
▁Establish	-11.2709
▁architecture	-11.271
▁legitimacy	-11.2713
▁summits	-11.2714
▁predictable	-11.2721
▁punishable	-11.2722
▁Chi	-11.2724
▁males	-11.2732
▁automatically	-11.2732
▁descent	-11.2734
▁electric	-11.2734
▁thereafter	-11.2734
▁stick	-11.2747
▁frequent	-11.2754
▁era	-11.2754
▁Dan	-11.2755
▁Charlie	-11.276
ada	-11.2761
▁Ya	-11.2763
▁fostering	-11.2766
▁Yo	-11.2766
▁empty	-11.2767
▁gather	-11.2769
eh	-11.2776
▁chair	-11.2776
▁collecting	-11.2778
▁Golan	-11.278
work	-11.2782
▁withdrawn	-11.2782
▁welcoming	-11.2786
31	-11.2786
▁examining	-11.2787
ised	-11.2792
▁brake	-11.2794
▁radioactive	-11.2797
▁irrespective	-11.2803
▁Views	-11.2806
▁Role	-11.2807
▁prevalence	-11.2812
▁indispensable	-11.2812
▁disaggregated	-11.2816
▁Vehicle	-11.2817
▁commentary	-11.2819
▁ancient	-11.282
ative	-11.282
▁complicated	-11.2823
▁curriculum	-11.2827
▁fitted	-11.2831
▁pupils	-11.2834
▁Pe	-11.2835
▁ASEAN	-11.2836
▁accorded	-11.2838
▁sc	-11.2838
▁firearms	-11.2843
▁fashion	-11.2843
▁channel	-11.2844
▁Fa	-11.2847
ade	-11.285
▁dress	-11.285
▁Sexual	-11.2854
▁truck	-11.2857
▁desk	-11.2859
▁walking	-11.2859
▁smell	-11.286
▁Sun	-11.2861
▁suppose	-11.2863
▁west	-11.2864
▁marketing	-11.2868
▁Za	-11.2868
▁leaves	-11.2869
▁formulating	-11.2872
▁pieces	-11.2873
▁proven	-11.2873
▁Er	-11.2875
▁farm	-11.2884
Cause	-11.2886
▁tensions	-11.2889
ven	-11.2893
▁journey	-11.2893
63	-11.2897
-12	-11.2899
▁Consensus	-11.2912
▁attending	-11.2914
▁launching	-11.2915
▁resolving	-11.2925
▁Botswana	-11.2929
▁Cruel	-11.2929
▁PV	-11.293
▁guiding	-11.293
▁allocate	-11.293
▁detection	-11.2933
▁economically	-11.2935
▁Maritime	-11.2937
▁everywhere	-11.294
▁apparently	-11.2943
▁Dis	-11.2947
▁pollutants	-11.2955
▁handed	-11.2956
AD	-11.2959
▁exercised	-11.2962
▁Joe	-11.2963
▁manifestations	-11.2963
▁Danish	-11.2964
▁killings	-11.2965
▁damaged	-11.2966
zo	-11.2968
▁council	-11.297
▁poorest	-11.2977
▁Move	-11.2983
▁stating	-11.2984
ide	-11.2986
▁islands	-11.299
▁banking	-11.2991
▁supportive	-11.2993
berg	-11.2993
▁1971	-11.2994
▁Max	-11.2995
▁Integration	-11.2995
▁Du	-11.2996
▁SMEs	-11.2997
▁ECA	-11.2999
▁4.2	-11.3001
▁damages	-11.3002
▁Currently	-11.3004
▁Niger	-11.3006
vi	-11.3009
▁Overall	-11.3011
▁Far	-11.3013
▁121	-11.3014
▁debtor	-11.3018
▁authorize	-11.302
▁prefer	-11.3024
hmm	-11.3024
91	-11.3024
▁timetable	-11.3028
▁Mac	-11.3032
▁unacceptable	-11.3036
▁justify	-11.3037
▁Organisation	-11.3038
▁affordable	-11.3041
▁fissile	-11.3041
▁western	-11.3043
▁retention	-11.3044
RA	-11.3047
wing	-11.3047
▁repair	-11.3048
▁1976	-11.3052
▁decisive	-11.3057
gu	-11.3058
tor	-11.306
▁Mor	-11.3062
ita	-11.3062
▁submits	-11.3064
▁Trial	-11.3066
.00	-11.3066
IT	-11.3068
▁entail	-11.3071
operation	-11.3075
▁instability	-11.3075
htm	-11.3082
▁scientists	-11.3083
▁wine	-11.3085
▁Adopted	-11.3089
▁summarized	-11.3092
▁Ukrainian	-11.3092
▁player	-11.3094
istic	-11.3096
▁maintains	-11.3096
▁adherence	-11.3096
What	-11.3097
▁Account	-11.3099
▁Zone	-11.31
▁shares	-11.31
▁sin	-11.3101
▁pledges	-11.3103
▁Malawi	-11.3106
▁yield	-11.3109
bu	-11.3109
▁Six	-11.311
▁reaction	-11.311
▁acted	-11.3112
▁redeployment	-11.3114
▁communicated	-11.3115
▁returns	-11.3116
▁judgment	-11.3116
▁perceived	-11.3118
▁tour	-11.3118
▁Specific	-11.3119
▁engines	-11.3121
▁Certain	-11.3122
▁intend	-11.3122
▁IPSAS	-11.3123
tion	-11.3128
▁CEFACT	-11.3132
AR	-11.3134
▁edition	-11.3136
▁Subprogramme	-11.3137
.0	-11.3144
▁traditions	-11.3148
▁Impact	-11.3148
▁Care	-11.3149
▁Application	-11.3149
▁container	-11.3149
▁Prison	-11.315
▁upgrading	-11.3154
▁degrees	-11.3154
▁Ga	-11.3155
▁Madagascar	-11.3155
▁denial	-11.3158
▁angry	-11.3163
▁Organizational	-11.3163
ini	-11.3163
du	-11.3164
ub	-11.3165
Pacific	-11.3166
▁Samoa	-11.3167
61	-11.3168
▁recipient	-11.3173
▁2016	-11.3183
▁sky	-11.3184
▁Lakes	-11.3185
▁normative	-11.3187
az	-11.3193
Ivoire	-11.3194
▁ya	-11.3194
IN	-11.32
CO	-11.3201
▁proceeding	-11.3206
▁dying	-11.3208
▁tribute	-11.3209
sensitive	-11.3216
▁Corporation	-11.3216
▁Dutch	-11.3217
▁rapporteurs	-11.3219
▁sons	-11.3219
▁Val	-11.3224
▁meets	-11.3236
▁players	-11.3236
▁attributed	-11.3238
▁samples	-11.3242
▁median	-11.3246
▁installations	-11.325
▁privacy	-11.3251
▁creditor	-11.3251
▁tribunals	-11.3254
ical	-11.3256
▁Suppression	-11.3257
▁flat	-11.3258
▁tension	-11.3259
▁Except	-11.326
▁exit	-11.3261
▁Agent	-11.3261
▁Ok	-11.3269
▁admission	-11.327
▁Decolonization	-11.3271
▁Ch	-11.3272
her	-11.3274
▁specialists	-11.3274
▁kiss	-11.3275
▁supplied	-11.3282
og	-11.3284
▁Cabinet	-11.3286
▁split	-11.3289
ans	-11.3289
▁UNCCD	-11.329
ius	-11.3291
▁contributes	-11.3291
▁Si	-11.3296
▁hasn	-11.3297
▁guaranteeing	-11.3298
▁crops	-11.3304
▁ratifying	-11.3305
▁confident	-11.3314
▁Immigration	-11.3316
ement	-11.3317
▁collaborative	-11.3317
▁semi	-11.3321
fer	-11.3324
▁Queen	-11.3325
▁Meetings	-11.3326
▁128	-11.3326
▁Besides	-11.3327
▁childhood	-11.3327
▁notion	-11.3331
RI	-11.3333
82	-11.3335
▁09	-11.3337
▁ends	-11.3339
▁shop	-11.3343
▁camera	-11.3343
▁Gar	-11.3344
▁Welfare	-11.335
Chairman	-11.3351
▁continuity	-11.3351
▁aspirations	-11.3352
No	-11.3353
▁les	-11.3355
▁rental	-11.3356
▁2000-2001	-11.3357
ray	-11.3359
▁notify	-11.3359
▁boyfriend	-11.336
▁obstacle	-11.336
▁10,000	-11.3362
▁virtue	-11.3362
▁freight	-11.3363
▁bio	-11.3364
▁End	-11.3366
▁thinks	-11.3368
▁Bangkok	-11.337
▁falls	-11.3374
iz	-11.3377
▁Domestic	-11.3381
▁Recognizes	-11.3385
▁Rural	-11.3387
war	-11.3387
▁geographic	-11.3387
▁cop	-11.3389
▁partially	-11.3396
▁Copenhagen	-11.3397
▁Tokelau	-11.3401
▁cat	-11.3405
▁occupational	-11.3407
▁incorporating	-11.3412
▁advised	-11.3412
▁capture	-11.3414
▁mail	-11.3418
▁smuggling	-11.3422
▁awards	-11.3426
▁que	-11.3428
ino	-11.3429
▁eleventh	-11.343
▁par	-11.3437
▁newspaper	-11.3438
▁Sh	-11.344
▁faster	-11.344
Saharan	-11.3446
▁buyer	-11.3455
wood	-11.3457
▁Islam	-11.3458
▁feasibility	-11.3459
▁marks	-11.3461
▁owners	-11.3462
▁angels	-11.3467
▁witnessed	-11.3468
▁beneficial	-11.347
▁phases	-11.3473
▁depth	-11.3476
▁2.3	-11.3477
TA	-11.3482
car	-11.3484
mon	-11.3485
▁utilized	-11.3487
▁tracking	-11.3489
ue	-11.3491
▁abortion	-11.3493
▁realistic	-11.3499
▁unemployed	-11.3499
▁affects	-11.3499
▁autonomy	-11.3502
▁timing	-11.3503
▁smooth	-11.3509
SC	-11.3509
era	-11.3513
▁Province	-11.3519
▁clause	-11.3524
-9	-11.3527
ning	-11.3532
▁Everybody	-11.3536
▁passage	-11.3537
▁align	-11.3537
▁Ab	-11.3538
▁Construction	-11.3545
▁spot	-11.3548
▁placement	-11.3551
▁06	-11.3551
lic	-11.3551
date	-11.3554
▁forgot	-11.3557
▁Plenary	-11.3562
ID	-11.3566
▁losing	-11.3568
▁Regular	-11.3571
▁Satan	-11.3572
▁Tel	-11.3575
▁conscience	-11.3578
▁delete	-11.3578
.50	-11.3581
▁Wi	-11.3591
▁seas	-11.3591
▁EB	-11.3594
▁OAU	-11.3595
▁tea	-11.3596
aci	-11.3598
OS	-11.3598
▁magazine	-11.3602
Ban	-11.3603
▁calculation	-11.3605
▁Prophet	-11.3605
▁Substantive	-11.3605
standing	-11.3608
▁operators	-11.3613
▁helpful	-11.3616
▁Bay	-11.3617
▁Ku	-11.362
▁Guyana	-11.3621
▁Coordinating	-11.3627
▁genetic	-11.3628
▁aforementioned	-11.3629
ep	-11.3633
▁documented	-11.3636
▁acceded	-11.3639
▁spoken	-11.3642
62	-11.3645
▁breakdown	-11.3646
▁Alex	-11.3647
▁Rwandan	-11.3656
▁drivers	-11.3666
▁sport	-11.3668
▁baseline	-11.3668
▁pan	-11.3674
▁tradition	-11.3678
▁narrow	-11.3679
▁horizontal	-11.3683
▁fewer	-11.3684
▁pledged	-11.3684
▁Anyway	-11.3687
▁feedback	-11.3689
▁Didn	-11.3689
ola	-11.3693
range	-11.3697
▁Kar	-11.3697
▁Check	-11.3701
▁Truth	-11.3705
▁1972	-11.3707
▁lowest	-11.3707
▁Registrar	-11.3713
▁gtr	-11.3714
▁Prince	-11.3716
ren	-11.3718
▁suspects	-11.3719
.22	-11.3722
q	-11.3722
▁deals	-11.373
▁exceptions	-11.3732
▁tough	-11.3735
▁statutory	-11.3738
ash	-11.3739
▁braking	-11.3743
▁reverse	-11.3744
sha	-11.3745
rk	-11.3746
▁earned	-11.3746
▁undertook	-11.3748
▁Gas	-11.3749
▁releases	-11.3751
▁interviews	-11.3751
▁intent	-11.3756
▁horse	-11.376
▁Solomon	-11.376
▁Additionally	-11.3762
tra	-11.3763
▁Dar	-11.3769
▁discussing	-11.3775
▁Due	-11.3776
field	-11.3778
▁124	-11.3783
▁park	-11.3787
▁1958	-11.3788
▁wounded	-11.3788
ger	-11.3789
▁pillars	-11.3792
▁Little	-11.3793
▁deposit	-11.3794
▁California	-11.3794
▁describes	-11.3798
▁grand	-11.3803
-15	-11.3804
▁Van	-11.3808
▁Word	-11.3811
▁Enterprise	-11.3814
▁demonstration	-11.3814
▁excess	-11.3816
▁Para	-11.3817
▁yourselves	-11.3827
▁unprecedented	-11.3827
▁Compliance	-11.383
ala	-11.3831
▁UNAMID	-11.3835
▁Promote	-11.3837
▁Minorities	-11.3838
▁abandoned	-11.384
▁inadmissible	-11.3841
rate	-11.3843
▁cap	-11.3843
▁Mu	-11.3844
▁neck	-11.3846
▁magic	-11.3848
▁negotiate	-11.3849
▁herewith	-11.385
▁epidemic	-11.385
▁Aspects	-11.3858
▁reflection	-11.3862
▁surprised	-11.3862
▁noise	-11.3863
oc	-11.3863
▁Practice	-11.3865
▁CH	-11.3865
▁Arbitration	-11.3866
▁vertical	-11.387
▁Commercial	-11.3871
if	-11.3875
▁Looks	-11.3875
▁abide	-11.3875
eu	-11.3877
▁Lee	-11.3879
▁revenues	-11.3882
▁2012-2013	-11.3883
▁trees	-11.3887
▁diamonds	-11.389
▁assured	-11.3891
▁Ke	-11.3892
▁drunk	-11.3896
▁Name	-11.39
▁Priority	-11.3901
▁qualifications	-11.3902
▁familiar	-11.3907
ins	-11.3915
▁motivated	-11.3918
▁advancing	-11.3918
yn	-11.3919
yan	-11.3919
▁Woods	-11.392
▁proposes	-11.3922
▁succeed	-11.3923
▁appearance	-11.3927
qui	-11.393
▁toxic	-11.3932
▁accomplished	-11.3932
ging	-11.3934
▁Response	-11.3936
▁profit	-11.3937
▁mate	-11.3938
▁prosecuted	-11.394
▁Muslims	-11.3948
▁Congolese	-11.3949
▁branches	-11.395
▁constantly	-11.3951
92	-11.3953
▁Committed	-11.3955
EL	-11.3955
▁repeat	-11.3958
▁realities	-11.3961
▁compatible	-11.3963
▁jurisprudence	-11.3974
▁Cha	-11.3974
▁expensive	-11.3975
▁famous	-11.3976
▁staying	-11.3982
▁journal	-11.3988
EC	-11.3989
▁wisdom	-11.3992
▁Genocide	-11.3994
TS	-11.3994
▁incompatible	-11.3994
▁Ju	-11.3994
▁Puerto	-11.3995
▁Ru	-11.3999
▁reinforcing	-11.4006
▁intensive	-11.4008
▁Ge	-11.401
▁confidentiality	-11.401
▁protective	-11.4013
▁Ooh	-11.4013
▁livelihoods	-11.4014
▁History	-11.4018
▁1969	-11.4018
▁Secondly	-11.4021
▁cry	-11.4026
▁mo	-11.403
▁module	-11.4032
▁Increase	-11.4033
▁RID	-11.4034
ations	-11.4037
▁avoiding	-11.4045
ding	-11.4046
▁survive	-11.4048
▁licence	-11.4049
▁wrongful	-11.4049
▁Gulf	-11.4049
▁Veri	-11.4052
▁138	-11.4055
ach	-11.4059
▁studying	-11.4061
▁listening	-11.4063
om	-11.4067
▁sincere	-11.4069
▁Polish	-11.4069
▁vary	-11.4071
rin	-11.4073
▁prohibits	-11.4074
▁Too	-11.4077
▁upset	-11.4078
▁JIU	-11.4083
port	-11.4085
▁imposition	-11.4089
▁valuation	-11.4089
▁abstentions	-11.409
▁explicit	-11.409
government	-11.4093
▁OP	-11.4093
▁younger	-11.4094
▁ICC	-11.4094
▁discipline	-11.4094
▁debates	-11.4094
▁fool	-11.4098
▁supplement	-11.4102
▁clarified	-11.4103
▁biggest	-11.4104
▁Trinidad	-11.4105
▁runs	-11.4106
▁oceans	-11.4108
ries	-11.4109
▁Parliamentary	-11.4114
▁divisions	-11.4114
▁replied	-11.4114
▁Media	-11.4115
▁vacancies	-11.412
▁sing	-11.4123
▁parliament	-11.4124
▁Che	-11.4124
▁combatants	-11.4128
sized	-11.413
▁painful	-11.4137
▁colleagues	-11.414
▁infant	-11.4142
▁liked	-11.4142
how	-11.4144
▁Develop	-11.4144
▁studio	-11.4144
.109	-11.4148
▁arrange	-11.4151
▁Libya	-11.4158
▁Address	-11.4164
ano	-11.4166
▁helps	-11.4167
▁questioned	-11.4174
▁Presidency	-11.4176
▁worker	-11.4176
▁tenure	-11.4178
ory	-11.4179
▁comprise	-11.4179
▁besides	-11.4179
▁County	-11.4183
▁holders	-11.4184
▁Hu	-11.4185
▁Nick	-11.4185
can	-11.4187
▁steel	-11.4188
▁extrajudicial	-11.419
▁unified	-11.4192
▁Abu	-11.4196
▁soft	-11.4197
▁personally	-11.4197
style	-11.4197
▁threaten	-11.4197
▁righteous	-11.4199
▁Current	-11.4206
▁Cairo	-11.4208
▁versions	-11.4214
▁Eradication	-11.4214
val	-11.4217
▁Portuguese	-11.422
▁UNAIDS	-11.422
▁eating	-11.4224
▁03	-11.423
post	-11.4237
▁Mandate	-11.4237
▁threshold	-11.4244
▁mis	-11.4246
▁gay	-11.4251
▁Dangerous	-11.4253
▁sleeping	-11.4254
▁ga	-11.4256
▁guideline	-11.4259
▁screen	-11.4261
▁alternate	-11.4262
▁1540	-11.4263
▁veri	-11.4264
ix	-11.4264
▁angle	-11.4265
▁expressly	-11.4266
▁arbitral	-11.4268
▁voted	-11.4269
▁liquid	-11.4275
uri	-11.4276
▁consulted	-11.4278
▁render	-11.4284
▁ESCWA	-11.4286
▁Acts	-11.4288
▁IS	-11.4292
▁BE	-11.4293
▁notified	-11.4295
▁UNFCCC	-11.4296
▁IMO	-11.4299
▁Mexican	-11.4299
▁Transboundary	-11.4305
▁orbit	-11.4308
▁maximize	-11.4309
▁accessibility	-11.4309
▁CDM	-11.4309
▁Continue	-11.4312
▁Maria	-11.4313
▁intimidation	-11.4313
ay	-11.4314
▁Haitian	-11.4317
▁restrict	-11.4318
▁153	-11.4318
▁Near	-11.4319
▁Mauritania	-11.432
▁posted	-11.4321
▁occurs	-11.4322
more	-11.4323
▁preambular	-11.4328
▁Hence	-11.4332
vin	-11.4333
▁proactive	-11.4337
van	-11.4337
▁murdered	-11.4341
▁Considering	-11.4341
lar	-11.4342
▁conversation	-11.4343
▁rooms	-11.4344
LA	-11.435
my	-11.4351
▁Quality	-11.4352
▁Reiterates	-11.4353
▁renew	-11.4358
▁incitement	-11.4359
ori	-11.4361
▁Presidential	-11.4366
tu	-11.4368
European	-11.4368
▁seller	-11.4374
▁Berlin	-11.4379
disproportionate	-11.4379
country	-11.439
▁2.4	-11.4392
▁row	-11.4392
ps	-11.4395
▁Norwegian	-11.4395
▁1961	-11.4395
od	-11.4396
▁metres	-11.4397
▁3.3	-11.4399
▁holder	-11.44
▁Later	-11.44
▁shooting	-11.44
▁abolition	-11.4403
▁aviation	-11.4404
▁Paper	-11.4406
▁Anything	-11.4408
▁munitions	-11.441
▁hungry	-11.4411
▁UNOCI	-11.4414
ova	-11.4414
▁succession	-11.4417
▁accommodate	-11.442
▁divide	-11.4421
▁Cap	-11.4424
down	-11.4424
▁Democracy	-11.4424
▁chart	-11.4427
▁1968	-11.4427
▁adding	-11.4431
▁ITC	-11.4432
▁audience	-11.4434
▁buddy	-11.4435
▁vis	-11.4436
LE	-11.4436
▁ease	-11.4439
▁uncertainty	-11.4439
▁beliefs	-11.444
▁SO	-11.444
▁robust	-11.4441
▁stone	-11.4444
▁Works	-11.4447
▁quantities	-11.4451
▁RES	-11.4453
▁chose	-11.4454
▁concentrated	-11.4454
▁exercises	-11.4454
▁Front	-11.4459
▁amounting	-11.4459
▁Mal	-11.446
▁XV	-11.4462
▁distinguished	-11.4464
▁creative	-11.4466
.40	-11.4468
▁designation	-11.4471
▁corrected	-11.4472
▁acute	-11.4473
▁recover	-11.4475
▁amending	-11.4476
▁Ver	-11.4478
▁excluding	-11.4481
▁Bad	-11.4482
▁rid	-11.4487
▁satisfy	-11.4491
▁stereotypes	-11.4491
▁terror	-11.4492
▁incorporation	-11.4492
▁defines	-11.4495
▁08	-11.4497
PP	-11.4498
▁fallen	-11.4501
▁134	-11.4503
▁conceptual	-11.4505
▁adapted	-11.4506
av	-11.4507
▁Abraham	-11.4507
▁highlights	-11.451
▁Tokyo	-11.451
che	-11.4516
▁measurements	-11.4516
▁protest	-11.4517
▁mess	-11.4518
▁choices	-11.4523
▁print	-11.4525
▁appealed	-11.4531
▁indirectly	-11.4532
▁Decisions	-11.4535
▁arrive	-11.4537
▁cycles	-11.4539
▁Detective	-11.454
▁impartiality	-11.454
▁UNMIL	-11.4541
▁typically	-11.4541
▁Pi	-11.4548
▁Census	-11.4549
▁onto	-11.4554
▁160	-11.4554
ions	-11.4555
▁arguments	-11.4555
▁Thirty	-11.4555
▁simultaneously	-11.4558
▁Ray	-11.4558
▁spouse	-11.4559
decentralization	-11.4559
▁Prior	-11.456
▁inequalities	-11.4561
▁Papua	-11.4562
▁presenting	-11.4565
▁commerce	-11.4566
▁certified	-11.4567
king	-11.4567
▁contractor	-11.4568
▁evaluated	-11.4571
▁alcohol	-11.4571
▁preferred	-11.4572
ng	-11.4573
▁broadcast	-11.4574
▁Sal	-11.4575
▁promotes	-11.4579
ata	-11.4581
▁Early	-11.4586
▁infection	-11.4589
▁efficiently	-11.4591
▁continuously	-11.4592
▁containers	-11.4598
▁hidden	-11.4598
▁Investigation	-11.4598
▁accede	-11.4599
-2015	-11.4599
▁Principal	-11.4602
▁shortcomings	-11.4602
▁Finnish	-11.4604
▁Meanwhile	-11.4604
▁concentrations	-11.4604
nie	-11.4605
▁Travel	-11.4605
▁sharp	-11.4605
▁Tobago	-11.4606
▁Harmonization	-11.4607
▁prohibiting	-11.461
.23	-11.4614
▁placing	-11.4615
▁inventories	-11.4615
▁COUNCIL	-11.4616
▁benchmarks	-11.4625
▁opposite	-11.4626
▁parental	-11.4627
▁images	-11.4628
▁resettlement	-11.463
▁locally	-11.4637
▁automatic	-11.464
▁exercising	-11.4648
▁harmony	-11.4651
ath	-11.4658
▁specifications	-11.4658
▁networking	-11.4659
▁invoked	-11.4659
▁shipping	-11.466
html	-11.4661
▁select	-11.4665
▁corrections	-11.4666
▁Sit	-11.4666
▁credentials	-11.467
▁mobilizing	-11.4675
▁linguistic	-11.4676
▁constructed	-11.4679
▁steering	-11.468
▁Performance	-11.4681
▁evaluating	-11.4681
▁confirmation	-11.4682
ila	-11.4683
▁Kim	-11.4684
▁ho	-11.4687
▁dismissed	-11.4687
▁profound	-11.4688
▁steady	-11.4689
▁diversification	-11.4689
▁checks	-11.469
▁Minimum	-11.4693
▁NATO	-11.4701
▁loves	-11.4703
▁literature	-11.4704
▁Palais	-11.4704
▁Emphasize	-11.4704
discriminatory	-11.4706
▁Jane	-11.4706
▁virus	-11.4709
▁doors	-11.4709
AIR	-11.4713
trial	-11.4713
▁colonial	-11.4715
▁127	-11.4715
▁Bonn	-11.4717
▁investigative	-11.4718
▁delivering	-11.4718
▁restriction	-11.4719
▁pertinent	-11.472
▁126	-11.4725
▁reject	-11.4725
▁PM	-11.4727
▁Families	-11.4732
▁Accounts	-11.4737
▁attain	-11.4744
ns	-11.4745
-16	-11.4748
▁twelfth	-11.4749
▁novel	-11.475
▁182	-11.4751
▁songs	-11.4757
ium	-11.4758
▁intersessional	-11.476
pdf	-11.4761
pro	-11.4761
▁rescue	-11.4766
▁routes	-11.4767
bra	-11.4774
▁methodological	-11.4774
▁modelling	-11.4774
mit	-11.4775
quality	-11.4777
▁hoping	-11.479
▁Stress	-11.479
▁claimants	-11.4792
▁Bolivarian	-11.4794
▁1.3	-11.4798
▁Monaco	-11.4801
▁selling	-11.4802
ju	-11.4804
▁Egyptian	-11.4804
OC	-11.4805
▁wise	-11.4807
▁interface	-11.4808
▁stolen	-11.481
▁birds	-11.4813
▁Provisions	-11.4814
▁attainment	-11.4815
▁cultivation	-11.4815
ye	-11.4816
▁Aviation	-11.4819
▁Chargé	-11.4819
▁Wa	-11.482
▁Bi	-11.4821
MA	-11.4823
▁modify	-11.4824
▁borne	-11.4824
▁owe	-11.4826
IV	-11.4831
▁resumption	-11.4831
▁chapters	-11.4834
hand	-11.4835
▁militia	-11.4835
▁challenging	-11.4837
ero	-11.4838
▁Treaties	-11.4839
▁EUROPE	-11.4841
▁PRST	-11.4841
▁disseminated	-11.4841
▁incumbent	-11.4842
▁Exchange	-11.4843
▁breaking	-11.4844
▁crop	-11.4849
you	-11.485
▁Recent	-11.485
▁ethics	-11.4852
▁Peaceful	-11.4854
▁missile	-11.4859
▁wild	-11.4861
▁hiding	-11.4867
▁Gabon	-11.4867
▁commonly	-11.4867
▁favorite	-11.4869
▁stars	-11.487
▁correction	-11.4871
▁Agreements	-11.4876
▁recalling	-11.4879
▁hardly	-11.4882
▁Ze	-11.4885
-18	-11.4885
▁ICRC	-11.4888
▁ought	-11.4889
▁hearings	-11.4893
▁recourse	-11.4895
▁plate	-11.4901
▁alert	-11.4901
illa	-11.4905
▁bulk	-11.4906
▁revise	-11.4908
▁instalment	-11.4911
▁Sunday	-11.4911
▁listing	-11.4913
▁endorsement	-11.4913
▁disparities	-11.4917
▁beam	-11.4919
▁Classification	-11.4922
▁Were	-11.4924
▁boost	-11.4927
uff	-11.4927
ado	-11.4929
▁fragile	-11.4931
▁Old	-11.4934
▁discretion	-11.4938
▁sheet	-11.4941
▁Georgian	-11.4942
▁patrol	-11.4943
tin	-11.4946
▁lawful	-11.4946
▁allowances	-11.4947
▁evolving	-11.4952
▁Bob	-11.4953
▁knowing	-11.4955
▁publish	-11.4956
▁accuracy	-11.4957
▁04	-11.4959
▁moon	-11.4966
▁steal	-11.4967
▁rotation	-11.4967
▁Policies	-11.4967
▁computers	-11.4967
▁pressing	-11.4968
▁ideal	-11.4971
▁dust	-11.4973
▁privileges	-11.4973
▁Ba	-11.4975
▁Real	-11.4983
▁Self	-11.4983
.2.	-11.4985
▁workplan	-11.4986
▁ties	-11.4989
▁inspired	-11.4991
▁pictures	-11.4992
▁boundaries	-11.4995
▁Poor	-11.4996
▁GRSP	-11.4996
▁issuing	-11.4996
▁spouses	-11.4997
▁Bretton	-11.5003
▁lift	-11.5005
IP	-11.5006
▁Pollution	-11.5007
▁native	-11.5007
▁fleet	-11.5007
▁135	-11.5011
▁Lu	-11.5012
act	-11.5012
▁desired	-11.5013
▁Held	-11.5015
▁References	-11.5016
▁Accounting	-11.502
▁directions	-11.5023
air	-11.5028
▁Club	-11.5029
party	-11.5029
EP	-11.503
mann	-11.5033
▁Subject	-11.5037
▁Migrant	-11.5039
▁bases	-11.5041
▁faithful	-11.5043
▁stabilization	-11.5043
▁ballot	-11.5043
▁arrears	-11.5053
▁commencement	-11.5057
▁assistant	-11.5057
▁129	-11.506
▁132	-11.5062
▁gear	-11.5063
▁Tax	-11.5064
▁Tribunals	-11.5064
▁saving	-11.5072
▁coordinates	-11.5074
▁appropriately	-11.5074
nes	-11.5074
▁revolution	-11.5077
▁tragic	-11.5078
▁DNA	-11.5084
▁reveal	-11.5087
ever	-11.509
▁harmonize	-11.5092
▁revisions	-11.5096
gar	-11.51
▁payable	-11.5107
▁assert	-11.5109
ville	-11.5109
▁dude	-11.5109
▁illness	-11.5109
▁Wall	-11.5112
▁hired	-11.5112
art	-11.5117
aj	-11.5119
▁pop	-11.5121
▁roof	-11.5123
▁unnecessary	-11.5124
▁guns	-11.5126
▁Corrections	-11.5129
▁translate	-11.5129
▁Bur	-11.5129
▁unjust	-11.513
▁locked	-11.5131
friendly	-11.5132
▁Governance	-11.5133
▁modifications	-11.5141
▁NLB	-11.5143
▁GS	-11.5145
▁joke	-11.5145
▁committing	-11.5145
▁Music	-11.5151
▁Shall	-11.5151
▁standardized	-11.5151
▁labor	-11.5155
▁Inc	-11.5157
▁jurisdictions	-11.5159
▁155	-11.5159
▁bigger	-11.5159
▁reparation	-11.5161
▁raw	-11.5162
▁portfolio	-11.5164
▁Conventional	-11.5167
▁Better	-11.5167
▁isolation	-11.517
▁acid	-11.5171
▁holistic	-11.5171
▁irregular	-11.5176
▁football	-11.5178
▁projections	-11.5179
▁captain	-11.5179
▁133	-11.5179
▁fuels	-11.5181
▁hosting	-11.5184
▁amongst	-11.5185
▁contingency	-11.5187
▁Request	-11.5188
▁Em	-11.5194
-14	-11.5197
ena	-11.52
▁stake	-11.52
▁institutes	-11.5201
▁captured	-11.5201
▁cooperating	-11.5202
▁169	-11.5204
▁5.2	-11.521
▁objections	-11.5212
▁Level	-11.5213
▁consumers	-11.5216
▁GRSG	-11.522
▁Commerce	-11.5221
▁scenario	-11.5221
▁perpetrated	-11.5221
▁AS	-11.5223
▁thirteenth	-11.5223
▁jump	-11.5224
▁stayed	-11.5226
▁sexually	-11.5227
Test	-11.5228
form	-11.523
▁prominent	-11.5233
▁unanimously	-11.5234
▁José	-11.5239
▁neighbours	-11.5242
▁arranged	-11.5243
▁seed	-11.5252
▁gentlemen	-11.5256
ali	-11.526
▁streets	-11.5262
▁07	-11.5264
▁reinforced	-11.5264
▁milk	-11.5265
▁exhausted	-11.5268
▁insert	-11.527
▁genital	-11.5271
▁deliberate	-11.5271
▁Opportunities	-11.5276
▁INTERNATIONAL	-11.5277
▁EN	-11.5277
▁Daddy	-11.5277
▁1.4	-11.5278
▁PRESIDENT	-11.528
▁AI	-11.5281
ure	-11.5283
▁missiles	-11.5285
▁suddenly	-11.5286
▁holy	-11.5287
▁Addis	-11.5289
▁winter	-11.5292
▁allocations	-11.5293
▁edge	-11.5293
▁ascertain	-11.53
ski	-11.5304
elle	-11.5307
▁peer	-11.5308
▁Santa	-11.5309
▁exceeded	-11.5309
▁configuration	-11.5311
▁unpaid	-11.5312
▁packages	-11.5312
▁globally	-11.5313
▁roster	-11.5317
▁Try	-11.5318
▁prisoner	-11.532
▁surgery	-11.532
▁Picture	-11.5321
▁ECLAC	-11.5325
▁Jim	-11.5328
▁Border	-11.5328
▁picked	-11.5328
▁ministry	-11.5329
-11	-11.5335
su	-11.5335
▁Income	-11.5339
▁Registry	-11.534
▁surplus	-11.5343
▁131	-11.5344
▁Want	-11.5344
▁stuck	-11.5345
▁mix	-11.5347
▁Risk	-11.5348
▁expense	-11.5351
▁Gibraltar	-11.5351
qu	-11.5364
▁scourge	-11.5366
ft	-11.5371
▁brand	-11.5371
▁visual	-11.5371
▁ch	-11.5371
bb	-11.5374
▁consequently	-11.5376
▁individually	-11.5378
▁mutilation	-11.5381
▁printed	-11.5382
▁detect	-11.5383
▁Istanbul	-11.5386
▁controlling	-11.5388
▁05	-11.5388
▁torment	-11.5396
▁ports	-11.54
▁SP	-11.5402
nce	-11.5403
▁Louis	-11.5405
▁Though	-11.5406
▁Tar	-11.5406
▁receives	-11.5407
▁Han	-11.5409
▁AGENDA	-11.5411
▁GRRF	-11.5411
▁uphold	-11.5411
gue	-11.5412
▁disappearances	-11.5413
▁Death	-11.5421
▁identical	-11.5422
▁Improving	-11.5423
iya	-11.5425
▁Trans	-11.5427
▁concentrate	-11.5427
▁Sp	-11.5429
▁inmates	-11.543
▁Belgrade	-11.5431
▁CONVENTION	-11.5433
shi	-11.5434
▁Much	-11.5434
▁returnees	-11.5436
san	-11.5441
▁idiot	-11.5443
▁op	-11.5444
▁landmines	-11.5445
▁mere	-11.5445
▁kindly	-11.5445
▁regulating	-11.5448
▁UNU	-11.5451
▁Set	-11.5453
▁1951	-11.5455
▁autonomous	-11.5459
▁4.3	-11.5459
▁commenced	-11.546
▁garden	-11.546
▁mountains	-11.5461
▁Rather	-11.5462
▁corner	-11.5463
▁REPORT	-11.5465
▁Full	-11.5467
▁underscored	-11.5467
▁spheres	-11.5471
▁obey	-11.5475
ious	-11.5477
▁coalition	-11.548
▁Lieutenant	-11.548
▁Credentials	-11.5481
▁universe	-11.5482
▁behavior	-11.5485
▁OIC	-11.5485
▁141	-11.5488
case	-11.549
ira	-11.5492
▁utilize	-11.5492
▁unlikely	-11.5492
▁upcoming	-11.5496
▁struck	-11.5498
▁briefed	-11.5498
▁Revised	-11.5498
▁tongue	-11.5499
▁casualties	-11.55
cho	-11.5505
▁secretariats	-11.5506
▁qualitative	-11.5506
▁survivors	-11.5508
▁Others	-11.5509
site	-11.551
▁adversely	-11.5511
▁Bhutan	-11.5512
▁invest	-11.5515
▁comfort	-11.5523
SS	-11.5523
uz	-11.5524
▁Preparation	-11.5525
▁Multi	-11.5526
▁Net	-11.5527
▁Brazilian	-11.5538
▁malnutrition	-11.5539
▁somewhat	-11.554
▁residing	-11.554
▁earliest	-11.5544
wan	-11.5544
oo	-11.5546
▁UNDCP	-11.5551
▁ethical	-11.5554
▁CCPR	-11.5555
.45	-11.556
DP	-11.5569
▁3.5	-11.557
▁visibility	-11.5572
▁managerial	-11.5573
▁explosives	-11.5574
▁ICP	-11.5574
▁aiming	-11.5576
▁concludes	-11.5576
▁Counsel	-11.5577
▁participant	-11.5579
▁alarm	-11.5579
AP	-11.5581
▁Anna	-11.5584
▁inalienable	-11.5586
▁1950	-11.5588
▁analysed	-11.559
Women	-11.5591
CC	-11.5593
▁fairly	-11.5593
AF	-11.5601
ants	-11.5602
AM	-11.5608
▁guards	-11.561
▁Los	-11.5622
▁magnitude	-11.5627
▁slave	-11.5627
▁advocate	-11.5629
▁pray	-11.5631
▁deportation	-11.5632
▁Chemicals	-11.5633
▁defendant	-11.5633
▁Tri	-11.5633
▁fought	-11.5634
▁preference	-11.5635
▁Resident	-11.5636
▁communiqué	-11.5648
▁Run	-11.5648
▁Practices	-11.5649
▁establishments	-11.5653
▁crowd	-11.5659
▁Bring	-11.5659
▁prime	-11.566
▁intensified	-11.5663
▁inconsistent	-11.5668
▁warn	-11.5673
▁interdependence	-11.5673
▁2,000	-11.5674
▁Insurance	-11.5678
▁starts	-11.5679
▁rebel	-11.5682
▁substitute	-11.5683
▁metals	-11.5686
▁vice	-11.5686
▁flights	-11.5689
ag	-11.569
▁practitioners	-11.5696
▁independently	-11.5699
▁disseminating	-11.5706
▁meantime	-11.5707
▁News	-11.5709
▁hence	-11.571
▁log	-11.571
▁reserved	-11.5712
▁cops	-11.5714
▁debris	-11.5717
lit	-11.5718
▁grass	-11.5718
▁pure	-11.5719
ENT	-11.5719
▁Maldives	-11.5723
▁Box	-11.5723
▁imply	-11.5724
▁exclude	-11.5724
▁Yu	-11.5727
▁endeavours	-11.5729
▁Lady	-11.5731
▁burning	-11.5732
▁Again	-11.5732
ele	-11.5733
▁modest	-11.5735
▁Ask	-11.5736
▁hole	-11.5737
▁settings	-11.5742
▁laboratory	-11.5742
-30	-11.5748
▁1998-1999	-11.5751
▁fee	-11.5752
▁commence	-11.5757
▁Tourism	-11.5758
▁clothing	-11.5759
▁CTBT	-11.576
▁hinder	-11.5765
▁Gi	-11.5769
▁Personnel	-11.577
▁races	-11.5774
▁Vincent	-11.578
▁rare	-11.5782
▁Oman	-11.5783
▁disbelieve	-11.5785
AN	-11.5785
▁filling	-11.579
▁Procedures	-11.5792
▁Taiwan	-11.5793
▁Requirements	-11.5795
▁ME	-11.5797
▁processed	-11.5797
▁USA	-11.5797
▁stole	-11.5801
light	-11.5805
▁quit	-11.5807
▁earn	-11.5808
▁Colonel	-11.5811
▁Harry	-11.5811
▁broadly	-11.5821
▁limiting	-11.5822
▁succeeded	-11.5823
▁residential	-11.5824
▁shoes	-11.5834
TE	-11.5835
▁136	-11.5838
table	-11.584
▁Objective	-11.5841
▁coordinators	-11.5841
▁Sudanese	-11.5841
▁minister	-11.5841
▁Hospital	-11.5847
▁Ababa	-11.5847
▁tells	-11.5847
▁freeze	-11.5848
entrepreneurship	-11.585
▁fathers	-11.585
▁Je	-11.5854
.27	-11.5854
▁Caucasus	-11.5855
tan	-11.5857
▁accreditation	-11.5857
▁GM	-11.5858
▁label	-11.5861
▁confiscation	-11.5873
like	-11.5873
▁ADN	-11.5874
▁virtually	-11.5877
▁COM	-11.5877
▁noble	-11.5877
▁Liberation	-11.5879
▁govern	-11.5882
ea	-11.5883
▁affirmed	-11.5884
▁ages	-11.5885
▁sequence	-11.5886
well	-11.5887
ich	-11.5887
▁forensic	-11.5893
▁precisely	-11.59
▁2020	-11.5901
▁structured	-11.5901
▁6.1	-11.5906
NA	-11.5906
▁cessation	-11.5907
▁Especially	-11.5908
▁gravity	-11.5909
▁wheel	-11.5911
lon	-11.5912
▁Inspector	-11.5913
▁Marshall	-11.5914
▁lovely	-11.5917
type	-11.592
▁Higher	-11.5924
▁6.2	-11.5934
▁POPs	-11.5935
▁Together	-11.594
▁Guam	-11.5953
▁believing	-11.5953
▁Danny	-11.5956
▁medicines	-11.596
▁alleviate	-11.596
▁bloody	-11.5962
▁iron	-11.5966
▁universality	-11.5966
▁profits	-11.5966
▁segments	-11.5968
ver	-11.597
▁budgeted	-11.5971
▁Museum	-11.5976
▁nationally	-11.5988
▁Export	-11.5989
▁workforce	-11.599
cal	-11.5992
▁helicopter	-11.5994
▁awaiting	-11.5994
▁Reconciliation	-11.5994
▁Strategies	-11.5995
▁Standardization	-11.5995
▁peak	-11.5997
▁EIA	-11.6002
des	-11.6002
▁adhere	-11.6006
▁Citizens	-11.6006
▁Liaison	-11.6008
▁Boston	-11.601
▁enemies	-11.6012
uv	-11.6015
▁fan	-11.6018
▁reputation	-11.6018
▁isolated	-11.6022
qua	-11.6022
▁walls	-11.6022
▁basically	-11.6026
▁Prevent	-11.6027
▁Likewise	-11.6029
▁victory	-11.603
▁policymakers	-11.603
▁linking	-11.603
▁figured	-11.6031
▁persecution	-11.6031
▁dare	-11.6033
▁legs	-11.6033
▁XII	-11.6035
▁Age	-11.6036
▁5.1	-11.6037
▁briefly	-11.6039
▁Sarah	-11.604
▁Coalition	-11.604
▁crap	-11.6042
▁weekend	-11.6043
▁rivers	-11.6045
▁screening	-11.6046
▁3.4	-11.6046
▁cope	-11.6047
▁lease	-11.6047
▁kitchen	-11.6049
▁noticed	-11.6051
pi	-11.6052
.35	-11.6057
▁accredited	-11.6058
▁CST	-11.6062
▁accelerated	-11.6065
▁Ti	-11.6066
▁tape	-11.6067
▁draws	-11.607
▁accord	-11.6075
AT	-11.6075
▁Short	-11.6076
ford	-11.6078
▁Cost	-11.6079
▁births	-11.6079
ks	-11.6082
▁socially	-11.6083
▁JS	-11.6084
▁ladies	-11.6085
▁circulation	-11.6085
ph	-11.609
▁finalize	-11.609
ral	-11.6093
▁kick	-11.6096
▁pandemic	-11.6096
school	-11.6101
▁Aboriginal	-11.6105
DA	-11.6106
▁environments	-11.611
▁Approval	-11.6116
▁MI	-11.6116
▁implies	-11.6118
▁hat	-11.612
sch	-11.6128
▁hall	-11.6129
▁crash	-11.613
▁visa	-11.6131
▁audits	-11.6133
▁neutral	-11.6136
▁Gambia	-11.6137
▁Subsidiary	-11.614
TC	-11.614
▁burn	-11.6142
sky	-11.6142
▁Super	-11.6143
▁explains	-11.6146
▁announcement	-11.6147
▁Mag	-11.6147
▁visitors	-11.615
▁Mass	-11.615
▁monitors	-11.6155
▁hi	-11.6162
▁ranging	-11.6165
▁licensing	-11.6166
▁circle	-11.6168
▁clarity	-11.6173
▁modification	-11.6176
▁livelihood	-11.6178
▁exemption	-11.618
▁Rotterdam	-11.6188
▁fifteenth	-11.6193
▁interrogation	-11.6199
▁imp	-11.62
▁Croatian	-11.6202
▁begins	-11.6202
▁Fair	-11.621
▁defense	-11.6211
▁Albanian	-11.6216
▁Simon	-11.6217
ette	-11.6219
▁diameter	-11.6219
▁nitrogen	-11.6228
▁weekly	-11.6228
▁Destruction	-11.6231
▁ceremony	-11.6231
▁tight	-11.6233
▁Nu	-11.6233
▁agrees	-11.6234
▁silence	-11.6234
▁Refugee	-11.6235
▁Ram	-11.6235
▁Par	-11.6236
mes	-11.6237
▁restored	-11.6237
▁EX	-11.6238
▁friendship	-11.6239
▁creates	-11.6247
▁Phase	-11.6248
▁answered	-11.6248
▁countering	-11.6249
▁Yep	-11.6251
▁domain	-11.6252
lam	-11.6253
ob	-11.6257
▁dangers	-11.6259
▁Allow	-11.6263
▁comprised	-11.6266
▁Liberian	-11.6267
▁AU	-11.6274
▁Point	-11.6276
▁Programmes	-11.6276
▁Percentage	-11.6279
▁Virgin	-11.6282
ological	-11.6282
▁operator	-11.6287
ethnic	-11.6287
▁violating	-11.6289
▁threatening	-11.6294
state	-11.6294
▁FBI	-11.6297
▁warned	-11.6297
▁Baghdad	-11.6299
▁los	-11.6303
▁respondents	-11.6304
Qaida	-11.6305
ew	-11.6306
ef	-11.6309
▁researchers	-11.631
▁traditionally	-11.6311
▁receivable	-11.6316
▁emotional	-11.6316
▁Turn	-11.6321
▁Uses	-11.6322
▁Friends	-11.6323
▁appropriations	-11.6324
▁Specialized	-11.6324
▁successor	-11.6324
▁consultant	-11.6325
▁customers	-11.6327
▁Indicators	-11.633
▁collectively	-11.633
▁quantitative	-11.6332
eb	-11.6342
▁criterion	-11.6345
▁Read	-11.6346
▁Revision	-11.635
▁162	-11.635
▁ecological	-11.6354
▁soldier	-11.6354
▁pensions	-11.6356
▁rough	-11.6356
▁assumptions	-11.6358
tar	-11.6359
▁weaknesses	-11.6359
▁UNMIS	-11.6361
▁Bel	-11.6369
▁buried	-11.637
▁modules	-11.6376
▁tunnel	-11.638
-13	-11.638
DS	-11.6381
▁Annexes	-11.6381
▁alleviation	-11.6385
ula	-11.6387
▁0.5	-11.6388
▁infected	-11.6388
▁charter	-11.6388
▁cutting	-11.6389
ON	-11.6392
ney	-11.6393
▁councils	-11.6395
▁Bahamas	-11.6396
▁chairmanship	-11.6398
▁operates	-11.6399
▁marriages	-11.6404
▁routine	-11.6405
▁occurring	-11.641
iff	-11.6411
▁Award	-11.6413
▁Verification	-11.6414
▁generous	-11.6415
▁politically	-11.6419
-24	-11.6419
▁avoided	-11.6419
▁bunch	-11.6421
▁Enforcement	-11.6422
▁CCW	-11.6425
▁readily	-11.6426
▁updates	-11.6426
▁ear	-11.643
▁upgrade	-11.6438
▁Ca	-11.6438
▁Command	-11.6442
▁analysing	-11.6443
▁suspicious	-11.6443
RC	-11.6445
▁unauthorized	-11.6448
▁neglect	-11.6449
▁volunteers	-11.6452
▁Senate	-11.6453
▁Scott	-11.646
ib	-11.6464
▁wave	-11.6465
▁1.15	-11.6467
▁sponsoring	-11.647
▁generating	-11.6471
▁deem	-11.6471
▁loading	-11.6478
▁parking	-11.6479
▁maps	-11.6482
▁impede	-11.6483
med	-11.6486
▁proceeded	-11.6487
▁keeps	-11.6489
rat	-11.6491
▁ignore	-11.6496
▁refuge	-11.65
▁misconduct	-11.6502
▁Conservation	-11.6503
▁UNDAF	-11.6505
sector	-11.6509
-23	-11.6509
▁wives	-11.6509
▁completing	-11.651
▁aggregate	-11.6513
▁printing	-11.6513
▁Neither	-11.6514
▁deferred	-11.6515
▁Br	-11.6517
▁Ordinance	-11.6517
pp	-11.6519
▁respecting	-11.6519
PS	-11.652
▁celebrate	-11.6522
▁inappropriate	-11.6524
▁WITH	-11.6528
▁Lake	-11.6528
▁Emphasiz	-11.6529
▁Olympic	-11.653
▁periodically	-11.653
▁TIRExB	-11.6532
▁panels	-11.6532
bal	-11.6534
▁profession	-11.6536
▁lacking	-11.654
▁ID	-11.6546
▁renewal	-11.655
▁Shi	-11.655
▁proposing	-11.6553
▁Chambers	-11.6554
▁halt	-11.6555
▁corporal	-11.6555
▁144	-11.6564
▁Cor	-11.6564
▁sugar	-11.6567
▁temporarily	-11.657
▁Conferences	-11.6573
▁producer	-11.658
gy	-11.6584
▁diversion	-11.6585
▁bright	-11.6585
▁pulled	-11.6586
ida	-11.6589
▁Serb	-11.6589
session	-11.659
▁deficit	-11.6593
▁Bu	-11.6594
▁stimulate	-11.6595
ned	-11.6597
▁Exactly	-11.6597
▁137	-11.6599
▁aligned	-11.66
▁ruled	-11.6601
▁smile	-11.6602
▁Insert	-11.6604
▁earnings	-11.6605
▁MINUSTAH	-11.6607
▁superior	-11.6608
kh	-11.6608
▁expedite	-11.6609
▁apportionment	-11.661
▁congregation	-11.661
▁varied	-11.661
▁reception	-11.6617
▁plain	-11.6618
▁furniture	-11.6619
▁1963	-11.6619
dar	-11.6622
▁Detention	-11.6623
▁Chris	-11.6624
▁joy	-11.6626
▁hardship	-11.6629
▁intensity	-11.6629
▁Eight	-11.6632
▁handled	-11.6633
▁devote	-11.6633
▁nineteenth	-11.6634
▁gradual	-11.6638
▁Conclusion	-11.6639
▁lesson	-11.6639
▁mercenaries	-11.664
▁5,000	-11.664
▁privatization	-11.6642
US	-11.6643
▁Intelligence	-11.6644
▁Verde	-11.6646
▁SESSION	-11.6655
▁Min	-11.6656
▁Lesotho	-11.6658
▁mapping	-11.666
▁Times	-11.6661
▁Category	-11.6667
aries	-11.6671
driven	-11.6672
▁dating	-11.6674
▁Money	-11.668
▁likewise	-11.6681
▁snow	-11.6682
bound	-11.6683
▁143	-11.6683
▁Judges	-11.6684
▁attaches	-11.6685
risk	-11.6685
▁salt	-11.6688
▁hurry	-11.6694
▁tonnes	-11.6695
▁Whole	-11.6696
ments	-11.6697
▁Mohammed	-11.6697
yo	-11.6699
'	-11.6705
▁forgiveness	-11.6707
▁municipality	-11.6709
▁bottle	-11.6709
▁walked	-11.6715
▁cuts	-11.6715
fire	-11.6716
set	-11.6717
▁defeat	-11.6718
ET	-11.6718
▁personality	-11.6719
▁Enhanced	-11.672
▁nervous	-11.672
len	-11.6722
▁Vehicles	-11.6726
▁ambitious	-11.6732
▁Edward	-11.6734
setting	-11.6735
▁145	-11.6739
▁Camp	-11.6739
▁empower	-11.674
mal	-11.6741
▁Boy	-11.6742
▁programmatic	-11.6743
▁kingdom	-11.6747
VI	-11.6748
▁tortured	-11.6749
The	-11.6751
▁Initial	-11.6752
▁na	-11.6754
affected	-11.6759
▁addendum	-11.6759
▁emergence	-11.6762
▁Improved	-11.6763
▁unfair	-11.6765
▁prolonged	-11.677
ky	-11.6772
▁enactment	-11.6774
▁Mad	-11.6776
▁Ever	-11.6776
▁Armenian	-11.678
▁Way	-11.6781
▁HE	-11.6783
fe	-11.6784
▁156	-11.6786
▁Replace	-11.6787
▁Ageing	-11.6787
▁Seven	-11.6788
▁CARICOM	-11.6788
▁HR	-11.6788
▁employ	-11.6789
▁242	-11.6793
▁IDPs	-11.6795
▁Compensation	-11.6795
▁800	-11.6797
▁Saturday	-11.6799
▁explored	-11.6799
▁lab	-11.68
▁whoa	-11.6803
▁relocation	-11.6804
tel	-11.6805
▁Tim	-11.6807
▁counterparts	-11.6807
▁Identification	-11.6808
eg	-11.6811
ery	-11.6811
▁modes	-11.6812
▁Facilitation	-11.6812
CP	-11.6812
▁2017	-11.6815
▁GHG	-11.6817
water	-11.6818
ella	-11.6822
▁Serbian	-11.6825
▁moratorium	-11.6829
dic	-11.6829
▁stressing	-11.683
▁publishing	-11.6831
▁Communities	-11.6832
▁ethnicity	-11.6835
▁GA	-11.6846
▁complied	-11.6847
▁inspectors	-11.6848
▁emphasiz	-11.6849
▁Matthew	-11.6849
▁carries	-11.6855
▁Honor	-11.6856
▁Maintenance	-11.6856
ku	-11.6861
▁Carl	-11.6863
sis	-11.6868
▁impression	-11.6871
▁modernization	-11.6876
ene	-11.6877
▁breaches	-11.6877
▁Aw	-11.6877
▁alongside	-11.6877
din	-11.6878
▁forgotten	-11.6887
▁revitalization	-11.6888
room	-11.689
och	-11.6896
▁Slovak	-11.6898
▁RC	-11.6898
▁logical	-11.6899
▁FROM	-11.69
▁fourteenth	-11.6901
hour	-11.6904
▁146	-11.6905
▁examinations	-11.6905
lock	-11.6907
▁Irish	-11.6909
▁failing	-11.6909
▁formerly	-11.6911
lie	-11.6911
▁eliminated	-11.6915
▁joining	-11.6916
▁breath	-11.6921
▁removing	-11.6922
kov	-11.6922
▁Ed	-11.6923
▁silent	-11.6923
▁rejection	-11.6928
▁chronic	-11.693
▁designate	-11.6931
▁compiled	-11.6931
▁artist	-11.6933
▁Majesty	-11.6934
▁embrace	-11.6936
▁Institutional	-11.6936
▁hazards	-11.6937
▁civilizations	-11.6938
▁indicative	-11.6941
ax	-11.6941
▁Argentine	-11.6943
▁whatsoever	-11.6943
▁cute	-11.6946
▁cr	-11.6947
▁shortage	-11.6947
▁foreseen	-11.6948
▁Jacob	-11.695
hal	-11.6953
▁Organic	-11.6953
▁Mohamed	-11.6954
yl	-11.6954
▁bird	-11.6958
▁Registration	-11.696
▁1966	-11.6961
▁solar	-11.6962
▁corrupt	-11.6964
▁Contact	-11.6964
▁corrigendum	-11.6969
▁suspicion	-11.6975
▁OR	-11.6976
▁tyre	-11.6982
▁Happy	-11.6982
▁1.6	-11.6982
▁CEB	-11.6984
▁praise	-11.6984
▁commented	-11.6984
HO	-11.699
▁introductory	-11.6992
▁Whether	-11.6992
▁diplomacy	-11.6993
▁avail	-11.6996
▁Rico	-11.7
▁trick	-11.7002
▁tracks	-11.7002
PA	-11.7003
▁attach	-11.7007
▁particulate	-11.7009
▁Challenges	-11.7011
▁diamond	-11.7014
▁Gold	-11.7019
▁designing	-11.7023
mb	-11.7024
▁Description	-11.7028
▁moves	-11.7032
OL	-11.7036
SE	-11.7036
▁Design	-11.7037
don	-11.7037
▁apologize	-11.704
▁portal	-11.7046
▁Resolutions	-11.7047
▁restrictive	-11.7049
▁139	-11.705
OP	-11.7053
▁perception	-11.7055
▁shame	-11.7055
▁alike	-11.7055
▁applicants	-11.7056
▁illiteracy	-11.7056
▁Mon	-11.7057
▁Combating	-11.706
▁Mel	-11.706
tz	-11.7061
▁explanations	-11.7063
▁inheritance	-11.7064
▁Smith	-11.7069
gov	-11.7072
▁influenced	-11.7072
▁uncle	-11.7075
▁surrender	-11.7076
▁210	-11.7079
▁exacerbate	-11.708
▁cup	-11.7081
▁preserv	-11.7087
▁hazard	-11.709
▁1948	-11.7091
gan	-11.7094
oh	-11.7094
▁barrier	-11.7095
soever	-11.7095
▁Fundamental	-11.7098
▁hero	-11.7099
▁lighting	-11.7103
▁liquidation	-11.7105
▁Morning	-11.7105
▁142	-11.7105
▁positively	-11.7106
▁Fax	-11.711
▁bathroom	-11.7111
▁situated	-11.7113
gg	-11.7114
▁Honey	-11.7115
▁dirty	-11.7115
▁emerge	-11.7115
▁argues	-11.7118
▁cousin	-11.7119
▁settlers	-11.712
▁adjust	-11.7121
▁commander	-11.7125
▁remarkable	-11.7127
▁Applications	-11.7127
▁ISBN	-11.7132
▁Suriname	-11.7135
bed	-11.7135
ken	-11.7137
▁CONTENTS	-11.7137
▁marginal	-11.7138
▁prerequisite	-11.7141
▁criticism	-11.7141
▁consolidat	-11.7142
▁contributors	-11.7144
▁postponed	-11.7145
▁cleaning	-11.7146
▁switch	-11.7146
▁trace	-11.7147
▁predecessor	-11.7148
▁differential	-11.715
▁lied	-11.7151
▁Ken	-11.716
▁Ye	-11.7161
▁4.5	-11.7163
▁pair	-11.7165
▁Somebody	-11.7166
▁166	-11.7168
▁notwithstanding	-11.7169
▁lights	-11.7172
▁Night	-11.7173
▁intense	-11.7177
▁beaten	-11.7177
▁recovered	-11.7178
nic	-11.7178
▁expelled	-11.7184
.3.	-11.7187
▁hostile	-11.7191
.28	-11.7192
ute	-11.7192
▁fertility	-11.7197
▁skilled	-11.7198
▁Ahmed	-11.72
row	-11.7202
▁pen	-11.7202
▁directives	-11.7209
▁mineral	-11.7215
ification	-11.7215
▁Almost	-11.7215
▁default	-11.7217
▁Credit	-11.7218
▁Language	-11.7219
▁Aware	-11.7221
▁illegally	-11.7223
▁dreams	-11.7224
▁perpetrator	-11.7225
▁IDF	-11.7225
▁pillar	-11.723
▁shirt	-11.7233
▁axis	-11.7233
▁ACC	-11.7233
▁Competition	-11.7237
▁encounter	-11.7237
▁argue	-11.7237
▁laugh	-11.7241
▁lend	-11.7242
▁wars	-11.7242
▁industrialized	-11.7244
▁storm	-11.7245
▁DEVELOPMENT	-11.7249
▁nose	-11.725
▁pal	-11.7251
▁Gen	-11.7254
ei	-11.7256
▁passport	-11.7256
▁Navigation	-11.7257
▁tragedy	-11.7257
▁Providing	-11.7258
▁confrontation	-11.726
▁overseas	-11.7261
▁crying	-11.7265
▁Brown	-11.7272
▁boards	-11.7273
▁UNITA	-11.7275
▁Crimes	-11.7275
▁dramatic	-11.7276
▁Jimmy	-11.7276
▁astray	-11.7277
▁drove	-11.7283
▁Hotel	-11.7283
▁accomplish	-11.7283
▁Tony	-11.7285
▁filament	-11.7286
▁Vo	-11.7293
▁centuries	-11.7295
BA	-11.7298
▁enables	-11.7298
WA	-11.7299
▁methyl	-11.7301
▁fake	-11.7301
rich	-11.7304
eng	-11.7307
▁pledge	-11.7307
▁Mc	-11.731
▁promulgated	-11.7312
uc	-11.7314
▁coercive	-11.7316
▁147	-11.7317
▁Bra	-11.7318
aka	-11.7318
▁usage	-11.7322
▁consecutive	-11.7326
▁rank	-11.7328
▁Talk	-11.733
▁desert	-11.733
▁trap	-11.7331
disciplinary	-11.7335
▁persistence	-11.7335
▁Serbs	-11.7336
▁grab	-11.7339
▁reads	-11.7342
▁IRU	-11.7345
▁sixteenth	-11.7345
▁shelters	-11.7348
▁Periodic	-11.7349
▁purchased	-11.7352
▁multinational	-11.7356
▁clearing	-11.7357
▁imported	-11.7363
▁oversee	-11.7363
▁instituted	-11.7365
▁couples	-11.7365
▁Examples	-11.7366
▁chicken	-11.7366
cent	-11.7367
▁verified	-11.737
▁q	-11.737
▁Merciful	-11.737
tes	-11.7372
▁quota	-11.7373
▁chamber	-11.7373
ram	-11.7374
▁arrests	-11.7375
ified	-11.7375
▁entrepreneurs	-11.7382
▁tuberculosis	-11.7382
▁inability	-11.7384
▁covenant	-11.7384
▁declining	-11.7384
Governmental	-11.7386
▁Towards	-11.7387
▁farming	-11.7388
ati	-11.7389
ria	-11.7392
▁thoughts	-11.7396
▁developmental	-11.7396
▁Ltd	-11.7397
▁Ser	-11.7399
ians	-11.7399
▁ignored	-11.7402
▁Sciences	-11.7406
oma	-11.7409
▁Cut	-11.7414
▁Mmm	-11.7415
United	-11.7416
ros	-11.7417
▁deposited	-11.742
▁persist	-11.7421
▁Belize	-11.7423
▁debut	-11.7424
▁boundary	-11.7426
▁sins	-11.7427
▁responsive	-11.7428
ode	-11.7429
▁experiment	-11.7432
▁Down	-11.7437
▁forwarded	-11.7437
sectoral	-11.744
▁entrance	-11.7443
▁films	-11.7451
▁successive	-11.7452
▁stored	-11.7456
▁explosion	-11.7457
ora	-11.7457
▁170	-11.7458
▁restaurant	-11.7458
▁episode	-11.7462
▁158	-11.7462
▁correspondence	-11.7463
▁IP	-11.7463
▁darling	-11.7467
▁millennium	-11.7467
▁deposition	-11.7467
▁flesh	-11.7469
▁happiness	-11.7474
▁devastating	-11.7476
▁gods	-11.7484
▁z	-11.7484
defence	-11.7487
▁instrumental	-11.749
ique	-11.7492
▁scenarios	-11.7498
▁permanently	-11.7499
▁EECCA	-11.7501
▁Single	-11.7503
▁chains	-11.7504
▁bother	-11.7504
▁5.3	-11.7506
adi	-11.7508
▁filing	-11.7508
▁empowered	-11.7508
▁hire	-11.7508
▁Austrian	-11.751
▁kidnapping	-11.7515
▁filter	-11.7519
▁pressures	-11.7521
▁promises	-11.7522
▁flash	-11.7523
▁restitution	-11.7524
▁GRPE	-11.7525
▁AP	-11.7528
▁courage	-11.7528
▁hadn	-11.7529
▁abolished	-11.7529
▁bullet	-11.7532
▁Globalization	-11.7537
tte	-11.7539
CI	-11.754
▁nomination	-11.7542
▁1,1	-11.7543
▁Ryan	-11.7544
▁UNAMSIL	-11.7546
▁highlighting	-11.7549
▁151	-11.7552
▁Tenth	-11.7552
▁forbidden	-11.7553
▁gotten	-11.7554
▁cancellation	-11.7558
▁immunities	-11.7561
▁assuming	-11.7561
▁invoke	-11.7564
▁customer	-11.7564
▁148	-11.7566
nu	-11.7568
▁bail	-11.7569
ici	-11.7573
▁deputy	-11.7574
▁deposits	-11.7577
▁plastic	-11.758
▁voluntarily	-11.7582
▁AT	-11.7583
▁6.3	-11.7588
ric	-11.759
▁rational	-11.7594
▁directors	-11.7597
▁152	-11.7597
▁Partnerships	-11.7597
▁Col	-11.7599
▁Embassy	-11.7602
▁stateless	-11.7604
▁Girls	-11.7608
▁sudden	-11.761
▁convictions	-11.7615
▁assign	-11.7616
▁distribute	-11.7621
▁pack	-11.7621
twithstanding	-11.7623
▁Eric	-11.7624
▁owed	-11.7624
▁marginalization	-11.7626
▁acceding	-11.7627
▁writer	-11.7633
▁Text	-11.764
▁specialist	-11.7641
▁guest	-11.7644
▁challenged	-11.7644
▁institute	-11.7645
▁sacrifice	-11.7646
▁wondering	-11.7647
▁interfere	-11.7648
▁yellow	-11.765
▁Defense	-11.7651
▁demonstrations	-11.7652
▁exploring	-11.7653
▁apostle	-11.7661
▁Mart	-11.7666
▁Hal	-11.7667
▁resilience	-11.7672
▁silver	-11.7674
▁shoulder	-11.7675
▁Scheme	-11.7676
nk	-11.7676
▁pe	-11.7681
▁loud	-11.7683
▁Results	-11.7683
▁min	-11.7684
▁distress	-11.7684
▁Ag	-11.7685
▁speeches	-11.7685
▁Guys	-11.7687
▁149	-11.7688
▁beer	-11.7688
▁nominations	-11.769
▁defer	-11.7691
▁tendency	-11.7694
▁judgements	-11.7697
▁promising	-11.7698
▁bond	-11.7701
▁Fish	-11.7704
speaking	-11.7707
▁Various	-11.7708
▁voters	-11.7711
▁tri	-11.7712
ami	-11.7714
▁7.1	-11.7714
▁veto	-11.7717
▁uranium	-11.7718
made	-11.772
▁abolish	-11.772
▁CRIC	-11.772
▁professor	-11.7725
▁cm	-11.7726
▁sword	-11.7727
▁MEETING	-11.7728
▁Fe	-11.7728
ale	-11.773
▁pretrial	-11.7732
▁Approach	-11.7734
▁paint	-11.7737
▁Doesn	-11.7738
▁loose	-11.774
▁encouragement	-11.774
▁crack	-11.7741
▁6.4	-11.7746
▁Equipment	-11.7749
▁Save	-11.775
▁doctrine	-11.775
▁criminals	-11.7753
▁Comments	-11.7754
▁slowly	-11.7756
▁humankind	-11.7757
▁disbelievers	-11.7757
mission	-11.7758
rah	-11.776
▁lord	-11.7761
run	-11.7761
▁aggressive	-11.7761
▁Pop	-11.7763
▁threw	-11.7763
EG	-11.7765
aire	-11.7768
▁interpretative	-11.7769
▁signals	-11.7769
▁PA	-11.777
▁Chicago	-11.777
▁subprogrammes	-11.7771
▁Solidarity	-11.7774
core	-11.7778
▁newspapers	-11.7778
▁Bro	-11.7781
ATION	-11.7781
-17	-11.7782
▁251	-11.7784
-31	-11.7785
▁bastard	-11.7791
▁Caledonia	-11.7792
uck	-11.7793
▁trailer	-11.7798
▁deciding	-11.7799
▁3,000	-11.78
▁rarely	-11.78
▁RE	-11.7801
▁proclaimed	-11.7804
▁tremendous	-11.7805
sion	-11.7805
UR	-11.7807
▁remainder	-11.7807
▁merit	-11.7808
ple	-11.781
▁barely	-11.7811
▁Ensuring	-11.7812
▁Roger	-11.7815
profit	-11.7815
▁gang	-11.7817
▁painting	-11.7818
▁affirmative	-11.7818
▁Substances	-11.7826
▁legality	-11.7826
▁accompanying	-11.7828
▁crossed	-11.7828
▁1996-1997	-11.7828
▁mixture	-11.7828
▁construct	-11.7829
▁Amy	-11.783
ua	-11.7833
▁endanger	-11.7833
▁checking	-11.7834
▁Phil	-11.7837
▁fails	-11.7839
▁servant	-11.7848
▁petition	-11.7849
▁physically	-11.7849
▁lots	-11.785
▁157	-11.7851
-0	-11.7851
▁Azerbaijani	-11.7854
▁Said	-11.7854
▁affair	-11.7854
▁deploy	-11.7855
▁0.7	-11.7855
▁unusual	-11.786
▁ensu	-11.786
app	-11.7862
▁sponsor	-11.7863
▁phased	-11.7864
▁connections	-11.7864
▁seventeenth	-11.7865
ima	-11.7865
▁Aren	-11.7868
▁parliamentarian	-11.7868
▁Cal	-11.7868
▁Seriously	-11.7869
▁Projects	-11.787
▁UNFICYP	-11.787
▁hello	-11.7872
▁platforms	-11.7875
▁realizing	-11.7878
nt	-11.788
▁informing	-11.7883
▁react	-11.7885
▁asleep	-11.7886
▁Thousands	-11.7886
dis	-11.7887
▁IPCC	-11.7888
▁compatibility	-11.789
▁Hurry	-11.7891
ble	-11.7892
▁knife	-11.7892
▁Cause	-11.7892
▁220	-11.7893
▁prevail	-11.7901
▁attained	-11.7901
▁trigger	-11.7902
east	-11.7903
▁flagrant	-11.7904
▁DO	-11.7907
▁burned	-11.7913
IM	-11.7913
▁phenomena	-11.7913
▁Consolidated	-11.7916
IL	-11.7917
▁1965	-11.792
▁supplemented	-11.7922
▁Ri	-11.7925
▁identifies	-11.7928
▁sur	-11.793
▁compounds	-11.7935
▁Being	-11.794
▁packaging	-11.794
▁usefulness	-11.7941
▁Hang	-11.7944
▁evacuation	-11.7949
▁license	-11.7949
▁ears	-11.7955
▁Bali	-11.7957
▁concert	-11.7958
▁norm	-11.7958
▁Live	-11.796
str	-11.7966
Chair	-11.7968
▁piracy	-11.7968
DC	-11.7969
▁united	-11.7969
▁deficiencies	-11.7971
▁skill	-11.7972
▁contest	-11.7976
▁adjacent	-11.7976
▁Find	-11.7979
▁Experience	-11.798
▁earthquake	-11.798
▁harsh	-11.7984
▁condemn	-11.7985
▁tail	-11.7985
▁Engineering	-11.7986
week	-11.7991
.105	-11.7996
▁Bal	-11.7999
▁audio	-11.7999
▁Mer	-11.8
▁contingents	-11.8003
▁Top	-11.8006
▁bills	-11.8007
▁confined	-11.8012
▁Steve	-11.8013
▁imposing	-11.8013
ush	-11.8014
▁Ham	-11.8016
▁blocks	-11.8021
EM	-11.8021
▁custom	-11.8022
▁twelve	-11.8026
▁unclear	-11.8027
▁claiming	-11.8028
▁AMISOM	-11.8033
▁impetus	-11.8037
▁reasonably	-11.8038
▁spatial	-11.8039
▁livestock	-11.804
▁Airport	-11.804
▁SECURITY	-11.8041
▁slight	-11.8043
▁Governmental	-11.8045
ff	-11.8049
In	-11.8049
▁attractive	-11.8051
▁bath	-11.8053
▁alignment	-11.8053
▁distinguish	-11.8054
▁testify	-11.8054
▁Pharaoh	-11.8056
▁attempting	-11.8056
bit	-11.8057
▁poses	-11.8057
dent	-11.8057
▁breast	-11.8061
▁sh	-11.8063
▁bold	-11.8063
SO	-11.8064
▁touched	-11.8064
▁admissible	-11.8064
▁159	-11.8065
▁perfectly	-11.8066
▁OTHER	-11.807
aki	-11.807
pos	-11.8072
▁doubts	-11.8074
▁converted	-11.8075
▁robbery	-11.8075
▁prosecutions	-11.8075
▁154	-11.8077
▁fled	-11.8077
▁inception	-11.8082
▁exemptions	-11.8087
▁earmarked	-11.809
.3.1	-11.8091
ick	-11.8094
▁Stan	-11.8094
▁Concluding	-11.8095
▁2.6	-11.8095
▁eligibility	-11.8096
▁Guard	-11.8096
▁craft	-11.8097
▁demanded	-11.8097
ccelerating	-11.8099
▁legacy	-11.81
▁experiencing	-11.8103
▁ensures	-11.8103
▁Guiding	-11.8104
▁typical	-11.8104
▁Americas	-11.8106
▁unbelievers	-11.8109
▁Economy	-11.8112
▁accepting	-11.8112
OT	-11.8114
▁IMIS	-11.8115
▁Step	-11.812
▁segregation	-11.8122
▁inviting	-11.8122
ona	-11.8122
▁Luke	-11.8128
▁clock	-11.8129
▁deserves	-11.8129
000	-11.813
▁button	-11.8131
▁civic	-11.8132
rn	-11.8133
▁notable	-11.8135
▁Socialist	-11.8135
▁applicability	-11.8136
▁Anyone	-11.814
lf	-11.8141
▁Respect	-11.8143
▁Lucia	-11.8144
▁1945	-11.8144
▁orphans	-11.8148
▁misuse	-11.8148
▁patrols	-11.8149
▁nongovernmental	-11.8151
▁Alexander	-11.8153
▁suspend	-11.8154
▁sat	-11.8154
▁rolling	-11.8155
▁streamlining	-11.8156
hen	-11.8158
▁collapse	-11.8162
▁WE	-11.8165
▁MINURSO	-11.8167
▁circulate	-11.8168
corruption	-11.8168
▁adolescent	-11.8169
▁overwhelming	-11.817
▁PARTIES	-11.8171
ox	-11.8174
▁MO	-11.8176
funded	-11.8177
▁Hard	-11.8182
▁complemented	-11.8184
low	-11.8184
▁Infrastructure	-11.8185
▁totalling	-11.8186
▁offensive	-11.8187
▁sand	-11.8189
▁jury	-11.819
▁50,000	-11.8191
▁foremost	-11.8191
ual	-11.8192
▁township	-11.8192
▁175	-11.8192
▁Soon	-11.8195
▁cleaner	-11.8195
▁decentralized	-11.8196
▁overlap	-11.8199
▁therapy	-11.82
▁underlines	-11.8201
par	-11.8202
▁supplier	-11.8204
▁peacekeepers	-11.8204
▁Clear	-11.8206
aga	-11.8206
▁generic	-11.8207
▁é	-11.821
cher	-11.8214
▁detected	-11.8216
▁teeth	-11.8217
▁CTC	-11.8217
▁valued	-11.8218
atory	-11.8219
▁unfortunately	-11.8223
▁Adopt	-11.8227
oz	-11.8229
▁recruit	-11.8231
▁loving	-11.8232
▁tied	-11.8234
▁frozen	-11.8236
▁technically	-11.8236
▁lending	-11.8238
▁Ivorian	-11.824
▁inserted	-11.824
▁Subcommission	-11.8244
▁Probably	-11.8246
▁20,000	-11.8247
▁audited	-11.8248
▁Overview	-11.8249
▁Rose	-11.8249
▁anger	-11.825
ball	-11.825
▁Del	-11.8252
▁hostage	-11.8254
▁minimal	-11.8254
DR	-11.8256
▁illustrated	-11.8256
▁nationwide	-11.8259
▁consulting	-11.826
▁Almaty	-11.8262
-22	-11.8264
▁Intolerance	-11.8265
▁keys	-11.8265
▁ne	-11.8266
▁Ethiopian	-11.8267
▁signatories	-11.8268
▁confinement	-11.8273
▁UNCDF	-11.8274
▁describing	-11.8274
▁Walter	-11.8275
▁bi	-11.8275
▁Ibrahim	-11.8279
▁schooling	-11.828
▁recosting	-11.8281
▁confront	-11.8282
▁Nature	-11.8282
▁gate	-11.8283
▁beauty	-11.8285
▁Advice	-11.8285
▁....	-11.8286
▁ridiculous	-11.8286
▁1964	-11.8296
▁2014-2015	-11.83
▁replacing	-11.8304
▁bro	-11.8304
▁practically	-11.8306
ME	-11.8306
▁attorney	-11.8312
▁arose	-11.8314
▁Host	-11.8316
▁systemic	-11.8319
▁2.7	-11.832
▁Uniform	-11.8321
▁Delete	-11.8322
▁UNMEE	-11.8325
▁Close	-11.8325
▁awesome	-11.8329
▁Amendments	-11.8332
▁Kal	-11.8334
▁Elections	-11.8339
▁expeditiously	-11.8341
▁700	-11.8341
▁breakfast	-11.8341
▁Apart	-11.8343
uch	-11.8343
DI	-11.8344
▁Enhancing	-11.8347
ois	-11.8347
▁Town	-11.8348
▁sp	-11.8348
hy	-11.8356
▁Start	-11.8356
ica	-11.836
▁ceased	-11.836
▁Equatorial	-11.8361
▁Ol	-11.8362
▁tentative	-11.8362
cul	-11.8364
▁excited	-11.8364
▁Grace	-11.8364
▁Comment	-11.8367
▁quarterly	-11.8367
▁Taylor	-11.8369
▁journalist	-11.837
▁documentary	-11.837
▁accomplishment	-11.8372
▁227	-11.8374
▁characters	-11.8374
▁miscellaneous	-11.8382
ell	-11.8384
▁devil	-11.8384
▁Strengthen	-11.8384
▁1,2	-11.8387
anda	-11.8387
▁Nonetheless	-11.8392
▁est	-11.8393
▁Transit	-11.8394
▁TRANSPORT	-11.8395
.33	-11.8395
pl	-11.84
▁theatre	-11.84
▁feeding	-11.84
▁compound	-11.8401
▁democratization	-11.8402
▁bone	-11.8402
▁investigators	-11.8404
▁Rock	-11.8405
▁politicians	-11.8406
▁Jones	-11.8407
sp	-11.8407
CE	-11.8407
finding	-11.8407
▁packing	-11.8408
▁PROGRAMME	-11.8408
▁Brian	-11.8409
▁letting	-11.8413
▁hanging	-11.8413
▁shower	-11.8413
RS	-11.8414
ear	-11.8416
▁intercultural	-11.8416
▁270	-11.8418
▁Ethics	-11.8426
▁Bosnian	-11.8427
▁1325	-11.8427
long	-11.843
▁varying	-11.843
-21	-11.8432
▁eighteenth	-11.8433
▁permissible	-11.8437
▁Know	-11.8441
▁wire	-11.8442
▁hydrogen	-11.8443
▁priest	-11.8444
.32	-11.8446
▁Appointment	-11.8452
▁Schedule	-11.8453
▁Guidance	-11.8453
IR	-11.8458
eva	-11.8459
▁incentive	-11.8459
▁161	-11.8463
▁chest	-11.8466
▁expectancy	-11.8467
▁transform	-11.8467
▁Carlos	-11.8468
▁Annan	-11.8468
5,000	-11.8471
▁Understanding	-11.8471
▁interrelated	-11.8472
▁sisters	-11.8473
▁reliability	-11.8474
▁occurrence	-11.8477
jan	-11.8478
▁relax	-11.8478
▁overcoming	-11.8479
▁213	-11.848
▁Forestry	-11.848
▁Supply	-11.8483
▁vacant	-11.8485
▁safeguarding	-11.8485
▁inner	-11.8491
▁SADC	-11.8492
vers	-11.8494
una	-11.8494
▁8.1	-11.8495
▁brackets	-11.8496
▁registers	-11.8497
▁Discussion	-11.8498
▁commensurate	-11.8499
xi	-11.8501
▁taxation	-11.8502
▁factory	-11.8505
▁ES	-11.851
▁organisation	-11.8515
▁Va	-11.8517
▁announce	-11.8518
▁actor	-11.8518
▁euro	-11.8518
▁march	-11.8519
▁NC	-11.8519
ition	-11.8519
▁shell	-11.852
iva	-11.852
▁freezing	-11.8521
▁reconnaissance	-11.8521
▁Alternative	-11.8522
▁venue	-11.8523
▁bureau	-11.8523
▁Khan	-11.8527
▁funeral	-11.853
▁211	-11.853
▁supervisory	-11.8533
▁Legislation	-11.8533
▁165	-11.8533
▁impressive	-11.8534
▁STATES	-11.8535
stakeholder	-11.8536
▁intermediate	-11.8537
▁grace	-11.8538
▁terminology	-11.854
▁pushed	-11.8542
▁angel	-11.8544
▁interregional	-11.8545
ban	-11.8546
▁Recalls	-11.8547
▁activists	-11.8549
▁com	-11.855
private	-11.8554
▁detainee	-11.8554
▁Empire	-11.8554
▁awful	-11.8558
cus	-11.8558
▁Pay	-11.8559
▁featured	-11.8561
▁disclosed	-11.8565
▁affaires	-11.8565
▁regretted	-11.8567
win	-11.8567
mel	-11.8567
▁dumb	-11.8568
ili	-11.8569
▁Noah	-11.8569
.3.2	-11.8572
▁Ministries	-11.8573
▁landing	-11.8577
▁Dude	-11.8578
▁Hungarian	-11.8578
ets	-11.858
▁Cooperative	-11.858
▁rocket	-11.8581
▁detective	-11.8582
▁tobacco	-11.8583
▁Handbook	-11.8586
▁battery	-11.8588
▁terminated	-11.8589
▁manufactured	-11.859
▁Cat	-11.8591
▁recycling	-11.8593
▁4.4	-11.8597
▁Must	-11.8599
▁Scope	-11.8602
▁abduction	-11.8602
▁libraries	-11.8606
▁Submitted	-11.8607
▁archives	-11.8615
bye	-11.8615
CA	-11.8616
▁broadcasting	-11.8618
▁Matt	-11.8622
▁lifting	-11.8623
▁density	-11.8624
ack	-11.8625
▁Indonesian	-11.8625
del	-11.8627
ake	-11.8629
▁photos	-11.863
▁Campaign	-11.863
▁Temporary	-11.863
▁timber	-11.863
▁Mines	-11.8631
▁RESOLUTION	-11.8632
▁CES	-11.8634
▁comfortable	-11.8636
IF	-11.8638
▁dilution	-11.864
▁208	-11.8641
▁ranks	-11.8641
▁Physical	-11.8642
▁6.5	-11.8645
▁multilateralism	-11.8645
▁expects	-11.8648
ese	-11.865
▁infections	-11.865
▁Job	-11.8655
▁Dispute	-11.8655
pon	-11.8661
▁demonstrates	-11.8662
▁eventual	-11.8665
▁offender	-11.8667
▁intervene	-11.8667
▁radical	-11.8676
▁Antigua	-11.8677
▁radar	-11.8679
▁5.5	-11.868
▁coupled	-11.8682
▁mu	-11.8683
He	-11.8686
▁Ross	-11.8688
▁Evidence	-11.8692
▁adds	-11.8695
.4.1	-11.8699
▁clinics	-11.8703
▁unchanged	-11.8704
▁dogs	-11.8704
▁Gun	-11.8705
mat	-11.8706
▁secrets	-11.8708
▁undermined	-11.8709
▁confusion	-11.871
▁mi	-11.8712
▁coat	-11.8713
stone	-11.8714
▁embodied	-11.8714
cy	-11.8717
▁Res	-11.8719
rt	-11.872
▁tender	-11.872
▁intra	-11.8721
▁motivation	-11.8723
▁dismissal	-11.8726
▁UPR	-11.8727
▁CEP	-11.8736
▁cake	-11.8737
▁tie	-11.8742
▁Rachel	-11.8744
ising	-11.8744
▁192	-11.8748
▁entitlements	-11.8755
▁clauses	-11.8755
▁volunteer	-11.8756
▁UNV	-11.8759
▁Ozone	-11.876
▁ceiling	-11.8762
▁Enforced	-11.8766
▁900	-11.8767
▁heating	-11.8769
▁artists	-11.8772
.31	-11.8772
▁Centres	-11.8775
▁Cup	-11.8776
▁harder	-11.8776
▁Sin	-11.8777
▁guides	-11.8779
▁connect	-11.8779
▁buying	-11.878
▁Convinced	-11.8784
▁websites	-11.8784
▁nearby	-11.8786
▁standardization	-11.8786
▁Jake	-11.8787
▁u	-11.8789
▁tribal	-11.8789
▁retired	-11.8789
ign	-11.8789
▁tackling	-11.879
▁aftermath	-11.8792
▁confession	-11.8793
▁sensing	-11.8793
▁allegation	-11.8796
▁noon	-11.8799
▁pardon	-11.8799
nder	-11.8801
▁Beirut	-11.8801
▁Victoria	-11.8801
Finnish	-11.8802
▁Mogadishu	-11.8806
▁optimal	-11.8806
▁thoroughly	-11.8808
book	-11.8808
▁variance	-11.8808
▁interviewed	-11.8809
▁Kat	-11.8809
▁Sounds	-11.881
▁approached	-11.8813
▁Stabilization	-11.8814
▁sheets	-11.8815
▁factual	-11.8815
▁Hill	-11.8818
▁precious	-11.8819
▁marital	-11.882
▁beach	-11.8821
▁somehow	-11.8823
cu	-11.8824
▁Place	-11.8826
▁Navy	-11.8832
▁spell	-11.8832
▁credits	-11.8835
DF	-11.8836
▁helicopters	-11.8837
▁Direct	-11.8837
▁cook	-11.8838
▁policymaking	-11.884
▁dependence	-11.8841
▁hrs	-11.8842
▁ok	-11.8845
▁overdue	-11.8845
PC	-11.8855
▁Columbia	-11.8856
▁abandon	-11.8859
▁Mid	-11.8865
▁seizure	-11.8866
br	-11.8867
▁Owing	-11.8871
▁der	-11.8872
▁plenty	-11.8874
sessional	-11.8876
▁Ash	-11.8876
right	-11.8876
▁Games	-11.8877
▁Com	-11.8879
▁Comoros	-11.8881
▁res	-11.8881
▁Afro	-11.8882
▁Presentation	-11.8885
▁residual	-11.8885
sum	-11.8886
▁CONFERENCE	-11.8888
▁Conditions	-11.8888
▁pharmaceutical	-11.8889
▁bin	-11.889
▁condemns	-11.8893
.4.2	-11.8893
face	-11.8895
rov	-11.8896
▁Proposals	-11.8901
▁supplementing	-11.8902
▁delegate	-11.8902
▁Agreed	-11.8905
▁AL	-11.891
▁banned	-11.891
▁flowers	-11.8912
▁Greater	-11.8912
depleting	-11.8914
▁lodged	-11.8917
▁appreciates	-11.892
▁daughters	-11.892
▁Knowledge	-11.8921
bs	-11.8921
▁prize	-11.8924
▁administrations	-11.8925
▁Low	-11.893
▁shock	-11.893
▁Uncle	-11.8931
.36	-11.8933
gh	-11.8936
▁gaining	-11.8937
▁mg	-11.8937
▁eradicating	-11.8938
▁Yearbook	-11.8941
▁Mas	-11.8941
ao	-11.8945
▁1.8	-11.8946
▁fed	-11.8947
▁Position	-11.8948
▁fossil	-11.8948
▁Kind	-11.895
▁ticket	-11.8951
▁seventy	-11.8956
▁Fall	-11.8956
▁Return	-11.8957
▁pretend	-11.8961
▁ca	-11.8962
▁AWG	-11.8966
▁mirror	-11.8971
▁Aarhus	-11.8972
▁Religious	-11.8976
-27	-11.8977
▁trusted	-11.8977
▁precede	-11.898
pre	-11.8982
▁5.4	-11.8983
▁Comp	-11.8983
▁Kofi	-11.8984
unece	-11.8986
▁bread	-11.8987
▁continental	-11.8989
ST	-11.8992
▁unequivocal	-11.8993
▁Fight	-11.8996
▁exploit	-11.9
dia	-11.9002
▁Consultations	-11.9004
▁Kivu	-11.9004
stat	-11.9005
▁deck	-11.9005
▁handbook	-11.9008
looking	-11.9009
ama	-11.901
▁164	-11.9011
member	-11.9013
▁201	-11.9014
▁constrain	-11.9018
▁asshole	-11.9019
▁suggesting	-11.9021
▁Ak	-11.9024
▁licences	-11.9025
FF	-11.9025
▁tr	-11.9026
▁deeper	-11.9027
▁Same	-11.9028
▁im	-11.9029
▁advocated	-11.9029
▁requisite	-11.903
▁Compact	-11.903
▁Turning	-11.9034
▁temple	-11.9036
▁petroleum	-11.9037
▁Kevin	-11.9039
▁Relevant	-11.9041
▁Baby	-11.9043
▁machines	-11.9046
asp	-11.9049
▁Extension	-11.9051
▁trafficked	-11.9051
▁atmospheric	-11.9053
▁Landlocked	-11.9055
▁inquiries	-11.9056
ators	-11.9058
▁Play	-11.9068
▁Estimate	-11.9073
▁babies	-11.9073
▁233	-11.9077
▁paramount	-11.9079
▁Hereafter	-11.9079
▁Fisheries	-11.9079
▁Forget	-11.908
▁finger	-11.9082
▁Memorandum	-11.9083
.34	-11.9084
▁darkness	-11.9086
▁163	-11.9088
▁reunification	-11.9089
▁Timorese	-11.909
▁invested	-11.909
▁alter	-11.909
▁Station	-11.909
▁blockade	-11.9091
III	-11.9095
nch	-11.9096
▁wet	-11.9096
▁Seventh	-11.9097
▁volatile	-11.9098
▁dioxide	-11.9098
▁Arthur	-11.9099
▁loads	-11.9099
▁euros	-11.9102
▁ARTICLE	-11.911
▁NOx	-11.9111
▁profiles	-11.9118
dan	-11.9119
▁escalation	-11.9119
▁errors	-11.912
▁10-	-11.912
▁reorganization	-11.912
▁upstairs	-11.9121
▁landscape	-11.9122
▁Efficiency	-11.9124
▁tsunami	-11.9124
▁random	-11.9124
▁universally	-11.9127
▁score	-11.9128
▁progressively	-11.913
▁Americans	-11.9133
▁Kan	-11.9133
▁congratulations	-11.9134
▁contaminated	-11.9136
▁suppress	-11.9138
▁transported	-11.9138
▁contamination	-11.9139
▁Hand	-11.9139
▁Game	-11.9143
▁bulletin	-11.9144
▁pride	-11.9146
OM	-11.9146
▁dedication	-11.9148
▁Pass	-11.915
▁235	-11.9151
▁abducted	-11.9153
▁Making	-11.9157
▁guardian	-11.9157
▁Juan	-11.9162
▁correctly	-11.9164
▁satellites	-11.9169
▁Responsibility	-11.9173
▁seize	-11.9173
LY	-11.9176
cost	-11.9176
▁secretary	-11.9177
sponsored	-11.9177
▁homeless	-11.9177
mor	-11.9178
▁convince	-11.9178
▁freak	-11.9179
▁PS	-11.918
▁IC	-11.9183
▁Angel	-11.9184
▁Clark	-11.9187
▁petrol	-11.9187
▁evolved	-11.9188
▁Hot	-11.9189
zy	-11.919
five	-11.919
▁nominal	-11.9193
▁Mat	-11.9193
▁Ur	-11.9195
▁Reserve	-11.9198
▁compile	-11.9198
▁Commend	-11.9199
▁Using	-11.9199
tain	-11.92
mas	-11.92
▁trauma	-11.92
▁6.8	-11.9201
▁Stephen	-11.9204
▁Swaziland	-11.921
▁interact	-11.9211
▁190	-11.9211
▁reminder	-11.9215
▁solving	-11.9222
EA	-11.9222
▁Ow	-11.9223
▁Investigations	-11.9223
regional	-11.9224
▁Kam	-11.9224
▁rounds	-11.9227
▁disclose	-11.9227
▁MDG	-11.9227
ré	-11.9229
▁recipients	-11.9229
▁beneficiary	-11.9229
▁competing	-11.923
iga	-11.9232
▁Francisco	-11.9232
▁Commitment	-11.9232
▁eh	-11.9234
▁broaden	-11.9234
-25	-11.9235
rag	-11.9239
▁1962	-11.924
AA	-11.9241
▁propaganda	-11.9242
▁incomplete	-11.9242
▁Congratulations	-11.9243
ites	-11.9245
not	-11.9247
▁Adaptation	-11.9247
▁entitlement	-11.9247
▁Lack	-11.9248
▁streamline	-11.9248
▁undoubtedly	-11.9248
▁imprisoned	-11.9249
▁Gross	-11.9249
▁bow	-11.9251
ose	-11.9253
▁founding	-11.9254
▁0.1	-11.9257
▁Jackson	-11.9258
▁acknowledging	-11.9258
▁layer	-11.9258
▁theft	-11.9259
▁dispatch	-11.926
ug	-11.9261
▁Fuel	-11.9263
lia	-11.9263
▁Carriage	-11.9266
▁Intellectual	-11.9267
▁Oslo	-11.9268
▁Texas	-11.9273
▁lifetime	-11.9273
tri	-11.9277
▁Fo	-11.9278
▁Whoever	-11.928
▁Pat	-11.928
▁militias	-11.9284
▁suppression	-11.9284
▁confused	-11.9284
.41	-11.9285
▁THAT	-11.9288
var	-11.9289
▁Satellite	-11.929
-29	-11.929
▁auto	-11.9294
▁immigrant	-11.9296
▁spectrum	-11.9296
▁disregard	-11.9297
▁Absolutely	-11.9301
▁unencumbered	-11.9301
▁Oil	-11.9302
▁Moroccan	-11.9306
▁brave	-11.9307
▁sacred	-11.9307
▁speedy	-11.9312
▁linkage	-11.9312
▁185	-11.9313
▁utility	-11.9319
▁patent	-11.9319
▁167	-11.932
▁symbols	-11.9323
▁steadily	-11.9324
▁questionnaires	-11.9328
▁throat	-11.9328
ight	-11.933
rie	-11.9333
▁belt	-11.9335
▁CHAIRMAN	-11.9335
▁Elizabeth	-11.9339
lor	-11.9341
It	-11.9341
EF	-11.9341
▁knock	-11.9345
▁Clearly	-11.9346
onic	-11.9346
▁Otherwise	-11.9346
▁tear	-11.9349
▁guilt	-11.9351
ras	-11.9354
▁Andorra	-11.9359
▁bombs	-11.9359
▁Rehabilitation	-11.9359
▁enquiry	-11.9361
▁quarters	-11.9369
▁Buenos	-11.937
▁Briefing	-11.9372
▁assassination	-11.9373
▁afforded	-11.9373
▁horrible	-11.9374
ess	-11.9375
▁bid	-11.9378
▁248	-11.9378
MI	-11.938
▁cleared	-11.9383
num	-11.9385
▁Amnesty	-11.9385
▁cattle	-11.9385
▁AN	-11.9387
▁Sign	-11.9389
▁forming	-11.939
▁discriminate	-11.9391
▁windows	-11.9393
▁Bush	-11.9394
▁Valley	-11.9398
▁negatively	-11.9399
▁UNAMA	-11.9402
▁adviser	-11.9403
▁debts	-11.9405
▁214	-11.9411
▁competencies	-11.9412
▁currencies	-11.9412
▁reaffirming	-11.9412
▁demanding	-11.9415
▁mayor	-11.9415
▁shipment	-11.9415
aid	-11.9417
▁168	-11.9421
lot	-11.9424
▁variables	-11.9426
▁Objectives	-11.943
▁Mis	-11.943
▁innovations	-11.9431
.38	-11.9431
char	-11.9432
▁acquiring	-11.9432
▁benefiting	-11.9434
▁Marriage	-11.9435
▁narrative	-11.9435
▁Possible	-11.9439
▁volumes	-11.944
ij	-11.9441
▁240	-11.9441
▁INTRODUCTION	-11.9444
▁microfinance	-11.9448
▁bones	-11.9449
▁tiny	-11.9449
▁Nah	-11.945
▁privilege	-11.9451
▁clusters	-11.9451
▁Andrew	-11.9453
▁plight	-11.9453
▁underground	-11.9458
▁undertakings	-11.9459
▁pig	-11.9461
▁sooner	-11.9467
▁urbanization	-11.9471
▁Barbuda	-11.9472
▁indications	-11.9473
▁Areas	-11.9475
▁synthesis	-11.9475
▁tariff	-11.9478
▁giant	-11.9481
far	-11.9481
-26	-11.9482
▁189	-11.9482
ving	-11.9483
chan	-11.9484
▁Inspectors	-11.9487
▁geo	-11.9487
▁depositary	-11.9488
▁AM	-11.9494
ties	-11.9495
▁fruitful	-11.9499
nov	-11.9499
▁XIII	-11.9502
▁instructed	-11.9502
▁voices	-11.9503
▁Bridge	-11.9503
▁referral	-11.9504
▁prospect	-11.9507
▁Kate	-11.9508
▁aquifer	-11.9509
▁supporters	-11.9511
.39	-11.9511
▁grid	-11.9512
oy	-11.9512
▁Aires	-11.9512
pan	-11.9513
▁nurse	-11.9515
▁Ay	-11.9519
las	-11.9519
▁Medium	-11.9522
▁Fu	-11.9522
▁winning	-11.9529
▁cheap	-11.9529
▁followers	-11.9529
▁Sound	-11.953
▁permitting	-11.953
tive	-11.9533
▁travelling	-11.9533
▁Abuse	-11.9535
▁preferential	-11.9536
purpose	-11.9537
▁260	-11.9537
▁loaded	-11.9537
▁mistakes	-11.9539
▁ATP	-11.9539
▁remittances	-11.9539
▁opium	-11.954
ert	-11.954
▁True	-11.9541
▁Hol	-11.9544
mark	-11.9547
▁advertising	-11.9552
▁purely	-11.9555
▁Win	-11.9559
▁Claims	-11.956
▁singer	-11.9565
▁renovation	-11.9566
▁tunnels	-11.9566
▁defects	-11.9567
▁consular	-11.9571
▁Mama	-11.9571
▁tyres	-11.9572
▁legislature	-11.9573
▁exert	-11.9574
▁dominant	-11.9575
▁Signature	-11.9576
▁specially	-11.9576
▁217	-11.9581
▁Plus	-11.9584
▁demining	-11.9585
▁expecting	-11.9586
oni	-11.9588
late	-11.9588
.37	-11.9589
▁Gazette	-11.959
▁IOM	-11.9591
▁Mount	-11.9592
bel	-11.9592
▁1267	-11.9593
▁vacation	-11.9595
uring	-11.9596
▁Shin	-11.9597
wo	-11.9597
rr	-11.96
▁pants	-11.9601
▁218	-11.9604
▁compensate	-11.9606
▁conciliation	-11.9606
PR	-11.9606
▁museum	-11.9609
▁Wilson	-11.961
▁7.2	-11.961
▁1954	-11.9619
▁discover	-11.962
▁procuring	-11.9622
IE	-11.9624
▁Previously	-11.9624
ough	-11.9624
▁dressed	-11.9626
▁sensitivity	-11.9628
PO	-11.9629
▁Alright	-11.9629
tr	-11.963
ound	-11.963
▁Eleventh	-11.9632
▁Xenophobia	-11.9632
▁desires	-11.9636
▁accumulation	-11.964
▁safer	-11.9641
▁UNDER	-11.9642
▁174	-11.9647
Yeah	-11.9647
▁assignments	-11.9648
▁Ready	-11.9648
▁202	-11.965
▁Paradise	-11.9652
▁UNPROFOR	-11.9652
▁pot	-11.9653
▁Victor	-11.9653
▁finalization	-11.9654
▁177	-11.9655
bre	-11.9655
▁breathe	-11.9656
▁attachment	-11.9662
▁financially	-11.9662
▁Quick	-11.9663
▁extends	-11.9666
▁Alan	-11.9669
IG	-11.9673
▁attracted	-11.9678
▁oppose	-11.9678
▁Week	-11.9685
awa	-11.969
▁ICCD	-11.9691
▁outlines	-11.9692
▁Stand	-11.9692
▁eggs	-11.9692
▁Recommends	-11.9694
▁mechanical	-11.9696
▁disappear	-11.9696
▁Carnet	-11.9697
▁Dean	-11.9697
▁Supplementary	-11.9698
▁openness	-11.9698
▁width	-11.97
gon	-11.9705
▁Sources	-11.9705
▁Moon	-11.9708
▁remnants	-11.9709
bus	-11.9712
▁alarming	-11.9713
▁reliance	-11.9714
▁Wood	-11.9716
▁span	-11.9718
▁scarce	-11.9727
TER	-11.9727
▁symposium	-11.9728
▁farms	-11.973
▁waterways	-11.973
▁Always	-11.9734
▁governor	-11.9738
▁similarly	-11.9738
▁coercion	-11.9739
▁181	-11.9739
▁Scotland	-11.974
▁qua	-11.974
▁Tommy	-11.9743
▁auditors	-11.9745
mir	-11.9745
▁Cool	-11.9746
▁void	-11.9746
▁commanded	-11.9747
und	-11.9748
▁qualification	-11.9749
▁dies	-11.9751
ema	-11.9752
▁travelled	-11.9752
▁slum	-11.9753
▁arises	-11.9754
▁restoring	-11.9755
▁interior	-11.9755
▁charity	-11.9757
▁266	-11.9758
▁importantly	-11.9758
▁respects	-11.976
▁organised	-11.9762
▁Belgian	-11.9768
ui	-11.9775
west	-11.9777
Yes	-11.9778
▁Goodbye	-11.978
.51	-11.9782
▁hygiene	-11.9782
▁medication	-11.9785
▁commissioned	-11.9787
▁textbooks	-11.9787
▁Recovery	-11.9788
▁laboratories	-11.9788
▁smoking	-11.9796
▁cooperatives	-11.98
▁dynamics	-11.9802
▁constituent	-11.9802
▁Need	-11.9805
▁Membership	-11.9809
▁incomes	-11.9809
▁lacked	-11.981
MC	-11.9811
rick	-11.9811
▁awake	-11.9812
▁demonstrating	-11.9814
▁pump	-11.9818
▁rationale	-11.9818
ied	-11.9818
▁conscious	-11.9819
▁Native	-11.982
▁pays	-11.9823
▁Price	-11.9823
ika	-11.9825
▁hereinafter	-11.9825
▁Release	-11.9825
▁187	-11.9825
▁backlog	-11.9826
▁enrolled	-11.9827
▁lake	-11.9828
▁naked	-11.9828
▁Doc	-11.9828
▁observes	-11.9828
▁withdrew	-11.9829
▁Thou	-11.983
▁solved	-11.983
▁injustice	-11.9831
▁las	-11.9835
▁Sport	-11.9835
▁Sara	-11.984
▁Chuck	-11.984
▁ruin	-11.9841
▁Daily	-11.9846
▁insane	-11.9849
▁Stockpiling	-11.9849
▁unlike	-11.985
▁Accord	-11.9851
▁leverage	-11.9852
▁ESA	-11.9853
Ma	-11.9856
▁Diplomatic	-11.9856
▁laundering	-11.9857
LL	-11.9859
▁Ahmad	-11.9859
▁cure	-11.986
▁Ethnic	-11.9861
▁abilities	-11.9861
▁provider	-11.9863
▁su	-11.9863
▁signatory	-11.9865
▁seriousness	-11.9866
FC	-11.9867
CH	-11.9869
▁Patrick	-11.9869
▁shipper	-11.9872
▁Significant	-11.9872
TI	-11.9872
▁singing	-11.9873
▁chances	-11.9873
▁compete	-11.9875
▁SNA	-11.9877
UT	-11.9878
▁fence	-11.9878
▁preamble	-11.9881
▁Living	-11.9884
▁Groups	-11.9887
sol	-11.9888
▁Female	-11.9889
▁Corrigendum	-11.9893
pt	-11.9897
▁fairness	-11.9897
▁Qu	-11.9897
▁countermeasures	-11.9897
▁coach	-11.9898
▁183	-11.9899
▁combustion	-11.9899
▁talent	-11.9899
▁Off	-11.9901
▁Francis	-11.9903
▁exceeds	-11.9903
PF	-11.9904
▁entails	-11.9904
▁circled	-11.9905
▁Vanuatu	-11.9906
iti	-11.9907
ees	-11.9907
▁calculations	-11.9909
▁odd	-11.991
▁CC	-11.9911
ock	-11.9914
▁Alice	-11.9916
▁Terms	-11.9918
hole	-11.9918
▁wicked	-11.992
▁ter	-11.992
▁deadlines	-11.9921
▁173	-11.9925
▁complementarity	-11.9926
▁extremism	-11.9927
▁Timber	-11.9928
nor	-11.993
▁scrap	-11.993
are	-11.9932
ela	-11.9932
▁absorb	-11.9934
▁bromide	-11.9935
▁bears	-11.9937
ato	-11.9941
▁Arctic	-11.9942
▁DE	-11.9946
▁bonds	-11.9947
▁nowhere	-11.9948
▁diligence	-11.995
RO	-11.9951
▁notifications	-11.9951
▁Oxford	-11.9953
▁Sports	-11.9955
▁artillery	-11.9955
▁administer	-11.9955
ole	-11.9957
▁associates	-11.9957
▁172	-11.9957
▁scales	-11.9957
eur	-11.9958
▁MA	-11.9962
▁condemnation	-11.9963
▁Kiev	-11.9964
▁matrix	-11.9969
▁titles	-11.9969
▁disappointed	-11.9971
pen	-11.9974
▁escaped	-11.9975
▁Wales	-11.9977
▁Bio	-11.9978
▁Luis	-11.9978
▁Tomorrow	-11.9978
▁deforestation	-11.9978
▁Resurrection	-11.998
▁spreading	-11.9982
▁350	-11.9982
known	-11.9982
▁queen	-11.9984
▁tickets	-11.9985
▁venture	-11.9986
▁Str	-11.9986
▁vendors	-11.9987
FI	-11.9988
▁extremist	-11.999
▁widow	-11.9992
▁SS	-11.9993
▁ICEF	-11.9993
▁Computer	-11.9997
SP	-11.9998
▁costly	-11.9999
reclassification	-11.9999
▁Inquiry	-11.9999
▁fears	-12.0001
▁Encourage	-12.0001
list	-12.0002
▁Motor	-12.0005
▁asserted	-12.0006
▁manufacturers	-12.0006
▁hunting	-12.0008
▁seekers	-12.0009
▁Laughter	-12.0011
▁successes	-12.0012
▁confiscated	-12.0018
▁Ana	-12.0019
▁psychiatric	-12.0019
▁Tre	-12.0023
▁variable	-12.0026
▁Option	-12.0026
▁186	-12.0027
gr	-12.003
eck	-12.003
▁displayed	-12.0034
▁Contracts	-12.0035
▁variations	-12.0035
▁Items	-12.0035
▁sees	-12.0036
▁UNDG	-12.0036
▁intentions	-12.0037
▁Funding	-12.004
▁Transparency	-12.004
▁rebels	-12.0043
▁Individual	-12.0044
▁Aliens	-12.0047
▁bubble	-12.0053
▁trainers	-12.0053
▁Antonio	-12.0055
▁Fran	-12.0057
▁roughly	-12.0059
▁publicity	-12.006
▁indiscriminate	-12.0063
▁Grant	-12.0064
▁reaches	-12.0068
class	-12.0069
▁philosophy	-12.007
▁Mindful	-12.007
▁Bou	-12.0071
▁slept	-12.0072
▁sends	-12.0075
▁accessed	-12.0075
▁essence	-12.0077
▁grantor	-12.0078
vert	-12.0079
▁Ren	-12.0079
▁curve	-12.0081
▁deliberately	-12.0087
▁Auditor	-12.0089
▁lengthy	-12.0091
▁disposition	-12.0092
▁Ted	-12.0094
▁oxygen	-12.0096
▁Index	-12.0097
ancy	-12.0098
▁repairs	-12.0099
▁Tour	-12.0101
▁risen	-12.0101
▁loyal	-12.0102
▁simplified	-12.0103
▁revelations	-12.0103
▁hydro	-12.0104
▁Kyrgyz	-12.0104
▁Sergeant	-12.0105
lay	-12.0107
▁confronted	-12.0108
▁certainty	-12.011
▁Abdul	-12.011
▁undue	-12.0111
▁Primary	-12.0115
gro	-12.0116
▁Relationship	-12.0118
▁combine	-12.0119
▁rice	-12.0121
fold	-12.0122
▁simplify	-12.0122
▁NAM	-12.0125
▁Marino	-12.0127
▁Ber	-12.0132
▁pioneer	-12.0132
▁heroin	-12.0133
▁trains	-12.0134
rus	-12.0134
▁narcotic	-12.0135
▁absent	-12.0137
▁coexistence	-12.0139
▁1946	-12.0139
▁stopping	-12.0141
▁194	-12.0144
▁raises	-12.0147
▁Awards	-12.0148
▁lit	-12.0149
▁Colombian	-12.0149
kar	-12.015
▁disturbing	-12.0151
▁Emily	-12.0153
▁cit	-12.0154
ech	-12.0159
▁worthy	-12.0165
dal	-12.0168
▁searching	-12.0171
action	-12.0171
▁visas	-12.0172
▁Assist	-12.0173
▁convergence	-12.0177
▁ANNEX	-12.0178
▁Focus	-12.018
▁Arts	-12.018
ump	-12.0181
▁champion	-12.0181
▁attaining	-12.0182
ening	-12.0183
▁unequal	-12.0185
▁Arrangements	-12.0188
▁MISC	-12.0189
nia	-12.0189
▁axle	-12.019
gie	-12.019
▁badly	-12.0193
▁Johnson	-12.0195
▁puts	-12.0198
▁Core	-12.0198
▁Growth	-12.02
▁fighters	-12.0201
▁Map	-12.0205
▁caution	-12.0207
▁reconsider	-12.021
▁conditional	-12.0212
▁characteristic	-12.0214
▁WORK	-12.0216
sson	-12.0217
▁clinic	-12.0217
▁resist	-12.0219
▁stockpiles	-12.0219
▁receivables	-12.022
▁wash	-12.0223
▁strip	-12.0227
national	-12.0228
▁Implementing	-12.0229
▁wing	-12.0229
▁holiday	-12.023
▁escort	-12.0233
▁outbreak	-12.0233
▁Tor	-12.0234
▁souls	-12.0236
▁Acknowledging	-12.0237
▁confirms	-12.0238
tur	-12.0238
▁infrastructures	-12.024
▁Johnny	-12.0241
▁cohesion	-12.0242
▁Courts	-12.0242
▁virtual	-12.0244
▁suck	-12.0245
▁Clean	-12.0246
▁Material	-12.0246
dom	-12.0246
▁963	-12.0247
▁Anne	-12.0248
▁interpreters	-12.025
▁Coll	-12.0251
▁ob	-12.0251
▁Sex	-12.0252
reaching	-12.0252
▁206	-12.0253
▁230	-12.0253
▁ordnance	-12.0255
▁SA	-12.0255
▁presumption	-12.0256
▁enact	-12.0257
gle	-12.0259
▁serial	-12.026
▁Battle	-12.0261
makers	-12.0264
▁Arabs	-12.0266
▁determines	-12.0267
▁tip	-12.0268
▁patience	-12.0269
▁243	-12.0269
▁Title	-12.027
▁Claimant	-12.0276
▁Fer	-12.0276
▁neighborhood	-12.0277
▁cancelled	-12.0277
.2.4	-12.0278
▁Mah	-12.028
▁versus	-12.0285
avi	-12.0288
▁initiation	-12.0288
▁validation	-12.029
GE	-12.0291
born	-12.0291
▁SUMMARY	-12.0291
▁UNOMIG	-12.0291
▁Enough	-12.0295
▁Expected	-12.0296
▁Things	-12.0297
lah	-12.0298
aria	-12.0299
nal	-12.0299
uh	-12.03
▁dick	-12.0301
▁unaccompanied	-12.0301
▁225	-12.0301
▁cream	-12.0302
▁minds	-12.0303
▁sheep	-12.0304
▁222	-12.0312
▁literally	-12.0313
▁constituting	-12.0316
▁weakness	-12.0317
▁Op	-12.032
▁Susan	-12.032
oon	-12.0321
life	-12.0322
▁encumbered	-12.0324
▁188	-12.0327
▁cornerstone	-12.0328
▁Kha	-12.0331
▁SEE	-12.0332
▁graduated	-12.0332
▁Technological	-12.0333
ses	-12.0335
met	-12.0336
▁extract	-12.0337
▁Guess	-12.0339
▁explaining	-12.0341
▁erosion	-12.0343
▁advocates	-12.0343
Rapporteur	-12.0343
▁MOP	-12.0344
▁Morgan	-12.0344
▁inflicted	-12.0349
bin	-12.035
▁coup	-12.0353
ae	-12.0353
▁PR	-12.0354
▁INSTRAW	-12.0356
▁Eritrean	-12.0359
▁aggravated	-12.036
▁rigid	-12.0361
▁Pol	-12.0362
▁insist	-12.0364
▁entries	-12.0365
▁OAS	-12.0368
▁Rail	-12.0378
▁celebration	-12.0379
▁accumulated	-12.038
▁Ottawa	-12.0381
▁terminal	-12.0382
▁Cities	-12.0383
▁Sta	-12.0383
ston	-12.0384
▁Attention	-12.0384
▁cumulative	-12.0387
▁Falkland	-12.0388
▁0.2	-12.0392
▁synergy	-12.0394
▁PRO	-12.0394
és	-12.0395
▁mar	-12.0395
itu	-12.0397
▁laughing	-12.0397
▁rapporteur	-12.0399
▁unfortunate	-12.04
ces	-12.04
▁purchasing	-12.0402
▁Andy	-12.0404
ction	-12.0405
▁acceleration	-12.0406
▁Kabul	-12.0407
▁differently	-12.0409
▁harmonizing	-12.0409
▁detrimental	-12.0411
▁Trustees	-12.0411
elecommunication	-12.0413
▁tall	-12.0416
▁infectious	-12.0419
▁Gal	-12.042
▁Dag	-12.0422
mus	-12.0423
ido	-12.0424
MO	-12.0424
▁Arusha	-12.0426
▁Quartet	-12.0428
▁vulnerabilities	-12.0428
rist	-12.0431
▁Twelfth	-12.0436
We	-12.0438
development	-12.0441
▁nuts	-12.0442
▁und	-12.0443
eo	-12.0445
▁artistic	-12.0445
▁parliaments	-12.0448
▁enacting	-12.0448
spect	-12.0448
permanent	-12.0449
▁Tan	-12.0449
▁fruits	-12.0449
▁quotas	-12.0451
▁Collection	-12.0454
ture	-12.0455
▁Procurator	-12.0456
▁Angeles	-12.0457
▁Opinion	-12.0457
▁protests	-12.0458
▁interpret	-12.0458
▁MSC	-12.046
▁extensively	-12.0461
▁preside	-12.0463
▁Dead	-12.0464
▁uneven	-12.0465
▁Hope	-12.0467
▁Referr	-12.0467
▁groupings	-12.0467
ther	-12.0467
▁Waste	-12.0472
▁burst	-12.0473
▁cancel	-12.0474
dor	-12.048
lov	-12.048
▁strikes	-12.0481
▁goddamn	-12.0482
▁226	-12.0483
▁moreover	-12.0484
▁educate	-12.0487
▁clubs	-12.0487
established	-12.0488
▁Baltic	-12.0489
▁selective	-12.0489
▁array	-12.0495
MENT	-12.0495
▁neighbor	-12.0496
vic	-12.0501
▁Kill	-12.0502
▁Trends	-12.0502
▁spaces	-12.0502
▁ITU	-12.0503
▁1000	-12.0504
▁sophisticated	-12.0504
ska	-12.0505
sc	-12.0506
▁borrow	-12.0506
▁Cash	-12.0507
▁encompass	-12.0511
▁Mum	-12.0511
▁educated	-12.0513
▁Lusaka	-12.0513
Chairs	-12.0513
▁178	-12.0514
▁Shu	-12.0514
▁script	-12.0514
▁utilizing	-12.0514
▁Bat	-12.0515
▁Brunei	-12.0516
▁server	-12.0519
.4.	-12.052
▁questioning	-12.052
▁traffickers	-12.0522
▁cooperated	-12.0523
▁transformed	-12.0523
.2.3	-12.0523
▁upheld	-12.0528
▁hiring	-12.0528
▁expressions	-12.0528
▁counting	-12.0533
▁Pact	-12.0533
test	-12.0534
under	-12.0536
▁1994-1995	-12.0537
▁Southeast	-12.0537
AB	-12.0538
▁Ninth	-12.0539
amp	-12.054
▁preclude	-12.0541
▁shore	-12.0542
▁lifted	-12.0545
els	-12.0548
▁Wal	-12.0549
▁regrettable	-12.0552
▁Sar	-12.0553
▁Lock	-12.0553
▁Den	-12.0553
fu	-12.0555
▁tissue	-12.0556
▁Transition	-12.0557
▁investing	-12.0558
▁Particular	-12.056
▁Jay	-12.0564
▁memories	-12.0565
▁wound	-12.0566
▁firing	-12.0568
▁sa	-12.0568
GA	-12.057
▁foregoing	-12.057
▁Manager	-12.0571
▁0.0	-12.0572
Re	-12.0572
▁Sanctions	-12.0573
▁Associate	-12.0574
▁mini	-12.0576
▁overarching	-12.0576
▁destroying	-12.0578
extraterritorial	-12.0578
▁203	-12.0579
▁Kimberley	-12.0579
▁rec	-12.058
▁thrown	-12.058
▁diagnostic	-12.058
▁enforc	-12.0582
▁tailored	-12.0583
▁movies	-12.0583
▁artificial	-12.0585
▁Pollutants	-12.0585
▁facilitates	-12.0592
PI	-12.0594
iel	-12.0595
▁AD	-12.0596
▁ta	-12.0597
▁seizures	-12.0597
▁bore	-12.0598
▁precedent	-12.0602
cut	-12.0611
▁Supporting	-12.0613
▁watched	-12.0615
▁Film	-12.0616
▁ICCPR	-12.062
cker	-12.062
▁shells	-12.0621
▁Helsinki	-12.0621
rio	-12.0621
ett	-12.0622
▁Drafting	-12.0624
▁Philip	-12.0624
ls	-12.0627
▁221	-12.0628
▁parity	-12.063
▁Kas	-12.0633
▁Juvenile	-12.0634
▁mobilized	-12.0635
▁Tuvalu	-12.0635
hr	-12.0638
hood	-12.0639
▁email	-12.064
▁Des	-12.0642
iyah	-12.0643
▁Corps	-12.0644
▁stones	-12.0644
▁Les	-12.0645
▁chairman	-12.0646
▁Abkhazia	-12.0646
▁flu	-12.0647
▁Billy	-12.0648
▁ambulance	-12.0648
▁daddy	-12.0651
▁disagree	-12.0654
▁precursors	-12.0655
▁enjoying	-12.066
▁musical	-12.0662
▁Railway	-12.0665
▁Ly	-12.0666
cia	-12.0667
▁por	-12.0668
▁catalyst	-12.0669
▁phones	-12.0669
▁accurately	-12.0669
▁Wise	-12.0673
▁Malaria	-12.0673
▁swing	-12.0674
▁cab	-12.068
▁editor	-12.0681
▁chairpersons	-12.0681
▁Girl	-12.0682
▁defending	-12.0684
▁IF	-12.0685
▁pretext	-12.0686
▁Missions	-12.0687
.43	-12.0687
▁murders	-12.0689
cap	-12.0691
processing	-12.0691
▁Judgment	-12.0692
▁Jerry	-12.0693
▁Quran	-12.0694
▁Ivan	-12.0696
kan	-12.0697
▁App	-12.0699
ulation	-12.0701
LC	-12.0701
▁7.5	-12.0701
child	-12.0701
▁temperatures	-12.0701
▁armaments	-12.0702
▁fluid	-12.0702
▁Persistent	-12.0702
ée	-12.0704
▁mood	-12.0705
undermining	-12.0706
FA	-12.0706
▁sulphur	-12.0707
gra	-12.0708
▁Nation	-12.0708
▁jealous	-12.071
▁Char	-12.0711
▁childcare	-12.0712
▁pocket	-12.0714
▁plot	-12.072
▁pet	-12.072
▁blast	-12.0722
FS	-12.0722
▁contracted	-12.0723
zh	-12.0728
▁terminate	-12.0728
▁ESD	-12.0729
▁ICSC	-12.073
▁cave	-12.0732
▁Delhi	-12.0732
▁deteriorating	-12.0733
ité	-12.0737
NE	-12.0739
▁meal	-12.0739
▁191	-12.074
▁bullshit	-12.0743
▁geared	-12.0744
▁umbrella	-12.0747
▁monster	-12.0749
▁directive	-12.0749
▁failures	-12.0749
pu	-12.075
▁recurrent	-12.0754
gas	-12.0755
read	-12.0755
▁Limited	-12.0756
aya	-12.0762
phy	-12.0763
▁Settlement	-12.0768
▁basin	-12.0769
▁Crisis	-12.0772
▁arriving	-12.0774
▁Cam	-12.0777
▁176	-12.0778
▁fortieth	-12.078
▁NOTE	-12.0781
▁Sami	-12.0781
ache	-12.0781
▁merger	-12.0783
▁preserved	-12.0784
▁flood	-12.0785
▁thirds	-12.0785
wed	-12.0788
▁shocks	-12.0788
▁HIPC	-12.079
▁Thematic	-12.0791
▁photographs	-12.0791
▁Controller	-12.0795
▁abused	-12.0796
▁circular	-12.08
▁Reconstruction	-12.0802
▁rightly	-12.0803
▁IFAD	-12.0805
▁Disability	-12.0807
▁compare	-12.0807
▁Apparently	-12.0808
▁Cases	-12.0808
ean	-12.0808
▁Specifically	-12.081
▁338	-12.081
▁impeding	-12.0811
▁verifiable	-12.0812
▁ITS	-12.0813
▁slip	-12.0813
▁voltage	-12.0815
▁Delegation	-12.0817
▁discovery	-12.082
▁Albert	-12.0821
▁unsustainable	-12.0821
▁tribes	-12.0823
▁survived	-12.0825
expendable	-12.0825
▁Musa	-12.0825
▁bo	-12.0825
▁rations	-12.0827
▁Ratification	-12.0828
▁valve	-12.0829
▁subordinate	-12.0829
▁civilization	-12.0829
▁Bor	-12.0829
▁Bart	-12.0832
▁interdependent	-12.0834
▁Pope	-12.0835
▁Dakar	-12.0836
▁tele	-12.0837
▁ICAO	-12.0839
▁Tra	-12.084
▁Ob	-12.084
▁balls	-12.0841
▁curb	-12.0841
▁retreat	-12.0842
CR	-12.0842
▁ICTR	-12.0843
▁Horn	-12.0853
▁qui	-12.0854
▁favoured	-12.0854
▁bite	-12.0856
▁Crown	-12.0856
fo	-12.086
▁transferring	-12.0861
▁Khartoum	-12.0861
▁Rh	-12.0861
▁Ladies	-12.0863
stra	-12.0863
Chairmen	-12.0866
▁choosing	-12.0867
▁statutes	-12.0869
▁207	-12.087
▁dé	-12.0873
▁shorter	-12.0873
▁disruption	-12.0877
▁Gabriel	-12.0877
▁compact	-12.0879
▁royal	-12.088
▁Stone	-12.0884
▁Actions	-12.0885
lat	-12.0885
ctor	-12.0886
itiating	-12.0886
▁lately	-12.0886
▁autumn	-12.0889
▁hardware	-12.089
▁Bobby	-12.0891
▁Ve	-12.0892
▁Prize	-12.0896
election	-12.0899
▁179	-12.0901
log	-12.0901
▁Romanian	-12.0904
▁Combined	-12.0904
▁Mayor	-12.0905
▁CISG	-12.0908
▁policing	-12.0908
▁Paulo	-12.0909
▁viability	-12.0912
▁Certainly	-12.0915
▁Publications	-12.0917
anga	-12.092
▁sciences	-12.0921
tas	-12.0922
▁manuals	-12.0924
▁UNDOF	-12.0926
ROM	-12.0928
▁deaf	-12.0934
▁Helena	-12.0936
▁thin	-12.0938
▁brutal	-12.094
▁banning	-12.094
▁Less	-12.094
mun	-12.0942
▁exploited	-12.0944
▁raped	-12.0946
▁graph	-12.0948
▁scrutiny	-12.095
▁Instrument	-12.0951
▁naturally	-12.0951
▁Crescent	-12.0952
▁decreasing	-12.0952
▁Estonian	-12.0952
effectiveness	-12.0953
▁Madam	-12.0955
▁fullest	-12.0956
▁emanating	-12.0958
play	-12.0958
▁Beyond	-12.0959
▁vested	-12.096
▁margin	-12.096
.44	-12.096
▁symptoms	-12.0961
▁Gr	-12.0962
▁conceal	-12.0964
▁171	-12.0964
▁criminalize	-12.0971
▁floods	-12.0971
▁burdens	-12.0971
ify	-12.0973
▁remand	-12.0975
▁curse	-12.0976
▁tropical	-12.0977
▁Unlike	-12.0977
▁stream	-12.0978
▁dump	-12.0979
▁Debt	-12.0979
▁Claire	-12.0982
▁Cook	-12.0983
▁Chernobyl	-12.0983
▁Pretty	-12.0983
nar	-12.0984
▁precarious	-12.0984
▁thrust	-12.0987
▁Ger	-12.0989
SI	-12.0989
▁Sy	-12.0989
▁undergo	-12.0989
▁Tonga	-12.099
▁elementary	-12.099
▁1.7	-12.099
taking	-12.0991
▁bike	-12.0993
▁footing	-12.0994
▁thermal	-12.0995
▁approaching	-12.0998
▁stomach	-12.1001
MP	-12.1004
▁cameras	-12.1008
▁recruiting	-12.1009
▁clearer	-12.1009
▁keen	-12.1013
▁produces	-12.1014
▁Kinshasa	-12.1016
▁technique	-12.1018
▁hill	-12.1019
.42	-12.1019
▁immunization	-12.1019
▁revert	-12.1019
▁pounds	-12.102
▁app	-12.1021
▁Roll	-12.1022
▁bombing	-12.1023
▁laying	-12.1023
▁228	-12.1023
▁1955	-12.1023
▁invalid	-12.1025
Ha	-12.1034
GO	-12.1035
▁Duke	-12.1036
▁Nope	-12.1037
▁poly	-12.1042
▁qualify	-12.1042
▁UNAMI	-12.1045
▁adjournment	-12.1045
kind	-12.1045
olo	-12.1047
▁imminent	-12.1048
▁Song	-12.1048
▁30,000	-12.1051
▁makeup	-12.1052
tation	-12.1052
TF	-12.1053
▁urging	-12.1054
▁pin	-12.1058
RD	-12.1058
▁dozen	-12.1059
▁experimental	-12.1061
▁Mai	-12.1065
oli	-12.1068
▁Distribution	-12.1075
▁forecast	-12.1076
BS	-12.1077
HA	-12.1078
▁agro	-12.1078
▁quest	-12.1081
▁Nordic	-12.1082
▁affiliated	-12.1082
▁Faculty	-12.1085
▁beg	-12.1087
▁wa	-12.1089
▁Bol	-12.1094
▁reveals	-12.1094
fra	-12.1096
▁expectation	-12.1097
▁Hassan	-12.1097
▁IMPLEMENTATION	-12.1098
▁Ball	-12.1099
▁237	-12.1101
▁logic	-12.1101
▁execute	-12.1102
▁Trusteeship	-12.1105
▁insofar	-12.1107
▁contexts	-12.111
▁dig	-12.1111
▁dramatically	-12.1112
combatants	-12.1112
▁1956	-12.1113
▁215	-12.1114
▁shadow	-12.1116
▁prophet	-12.1116
▁varies	-12.1117
▁alliance	-12.1119
▁overcrowding	-12.1119
▁measurable	-12.112
bank	-12.112
▁inscribed	-12.112
▁gr	-12.1123
▁allege	-12.1124
▁Cl	-12.1125
nis	-12.1126
huh	-12.1129
▁Kara	-12.1131
▁compliments	-12.1132
TP	-12.1132
▁remembered	-12.1134
▁Database	-12.1136
▁indictment	-12.1139
▁Judiciary	-12.114
▁deceased	-12.114
▁Gra	-12.1141
▁ro	-12.1142
▁pa	-12.1143
▁scholarships	-12.1143
▁216	-12.1147
▁prioritize	-12.1147
▁Looking	-12.1148
▁Freedoms	-12.1153
▁guests	-12.1157
▁pit	-12.1163
▁Heritage	-12.1164
▁Contribution	-12.1166
▁creatures	-12.1167
▁arena	-12.1168
DE	-12.1171
.55	-12.1177
▁Easy	-12.118
▁fingers	-12.1185
▁Agencies	-12.1186
▁Send	-12.1187
▁belonged	-12.1188
▁Present	-12.1188
▁Marie	-12.1191
▁diesel	-12.1191
▁trucks	-12.1192
▁interactions	-12.1193
▁exchanged	-12.1194
▁premature	-12.1195
sia	-12.1196
CF	-12.1196
▁securities	-12.1197
▁Believe	-12.1199
▁Janeiro	-12.12
▁Endorses	-12.1201
▁depended	-12.1204
▁Submission	-12.1207
▁classifications	-12.1208
▁juveniles	-12.1209
▁passes	-12.1213
▁ward	-12.1213
▁mitigating	-12.1213
▁Ter	-12.1214
▁supervise	-12.1215
▁relied	-12.1216
▁Sister	-12.1218
▁Shh	-12.1218
▁flee	-12.1219
oul	-12.1219
▁Kra	-12.1221
▁REPORTS	-12.1222
▁panellists	-12.1227
Chairperson	-12.1229
esh	-12.123
▁ruined	-12.1232
ava	-12.1233
▁whereabouts	-12.1236
▁kit	-12.1237
position	-12.1243
▁massacre	-12.1244
▁apartheid	-12.1245
▁brilliant	-12.1246
▁executing	-12.1248
LI	-12.1249
▁Oceans	-12.1251
ect	-12.1251
▁gardens	-12.1259
matic	-12.1259
▁vicinity	-12.126
▁implied	-12.1261
▁Karen	-12.1261
▁Notification	-12.1261
▁1,500	-12.1265
▁1930	-12.1266
▁Eddie	-12.1267
sustainment	-12.1268
▁Messengers	-12.127
▁predict	-12.1272
▁litem	-12.1273
▁XIV	-12.1273
▁Definition	-12.1276
▁184	-12.1276
impact	-12.1277
▁Jeff	-12.1279
▁harvest	-12.128
▁cooking	-12.128
▁Bermuda	-12.1281
hoo	-12.1282
▁Associations	-12.1282
TO	-12.1283
▁exhibition	-12.1283
▁stores	-12.1283
▁nonetheless	-12.1284
roots	-12.1284
▁romantic	-12.1287
bert	-12.1288
▁ju	-12.1289
ivity	-12.129
▁Nazi	-12.13
▁241	-12.13
rap	-12.1301
▁Photo	-12.1301
▁Nine	-12.1302
▁Pu	-12.1302
▁elders	-12.1303
▁jeopardize	-12.1304
▁Santiago	-12.1304
▁globe	-12.1304
▁diet	-12.1306
▁Williams	-12.131
▁sanction	-12.1312
▁imbalances	-12.1314
African	-12.1314
ien	-12.1314
▁Emissions	-12.1314
▁hunt	-12.1315
▁CONSIDERATION	-12.1315
▁200,000	-12.1318
▁differentiated	-12.1318
▁conveyed	-12.1319
▁pipe	-12.1321
▁theoretical	-12.1322
▁rests	-12.1322
band	-12.1324
gin	-12.1327
▁WMO	-12.1328
▁cocaine	-12.1329
UM	-12.133
▁assertion	-12.1333
▁Brindisi	-12.1334
▁Burn	-12.1336
▁commanders	-12.1337
▁homicide	-12.1337
▁Heavy	-12.1337
ering	-12.1337
▁presently	-12.1337
▁dancing	-12.1338
▁activated	-12.134
▁Hazardous	-12.1342
▁confirming	-12.1342
ill	-12.1342
▁expeditious	-12.1343
▁drain	-12.1344
▁headlamp	-12.1348
▁Ph	-12.1349
▁convert	-12.135
▁elaborating	-12.1352
▁vacuum	-12.1354
▁underline	-12.1354
▁asks	-12.1356
▁Revolution	-12.1358
▁churches	-12.1359
NP	-12.136
▁McC	-12.1362
RF	-12.1363
▁Dear	-12.1364
▁problematic	-12.1364
▁SU	-12.1366
▁intervals	-12.1366
▁fucked	-12.1369
▁destructive	-12.137
▁egg	-12.1371
▁arsenals	-12.1372
▁Eighth	-12.1372
vas	-12.1373
RP	-12.1375
▁687	-12.1377
▁Positive	-12.1377
tis	-12.1378
▁Turks	-12.1378
▁photograph	-12.1378
▁Reiterat	-12.1382
▁embarked	-12.1385
▁Kor	-12.1388
▁au	-12.1389
▁deserved	-12.139
▁Large	-12.1392
MU	-12.1392
▁desperate	-12.1393
▁sexes	-12.1393
▁toilet	-12.1396
▁disorder	-12.1402
NC	-12.1403
▁Safe	-12.1404
▁prayers	-12.1405
.96	-12.1408
▁credited	-12.141
▁Exercise	-12.141
hundred	-12.1411
▁deletion	-12.1412
nik	-12.1414
▁Virginia	-12.1414
▁Particularly	-12.1416
▁Las	-12.1416
▁centers	-12.142
▁reforming	-12.142
▁wounds	-12.1422
▁centralized	-12.1423
▁guitar	-12.1424
▁Bell	-12.1425
rant	-12.1427
ovi	-12.1427
▁complainants	-12.1427
▁Restrictions	-12.143
uma	-12.1431
▁ALL	-12.1431
rad	-12.1432
▁corporation	-12.1433
▁jacket	-12.1436
▁revenge	-12.1438
▁Methods	-12.1442
▁signatures	-12.1442
▁specifies	-12.1445
▁fitting	-12.1445
▁fluctuations	-12.1445
▁reinforcement	-12.1446
.05	-12.1452
▁slaves	-12.1454
▁download	-12.1455
.2.1	-12.1458
abi	-12.1459
▁roots	-12.146
▁Observation	-12.1462
▁moderate	-12.1462
▁po	-12.1463
nan	-12.1463
▁rat	-12.1468
pers	-12.1472
▁imbalance	-12.1474
▁lasted	-12.1474
▁Addressing	-12.1475
▁exempt	-12.1475
▁incredible	-12.1476
▁shipments	-12.1477
load	-12.1477
ics	-12.1478
link	-12.1478
▁lesser	-12.1479
▁divorced	-12.1483
bble	-12.1484
▁Barry	-12.1484
track	-12.1484
▁dawn	-12.1486
▁plates	-12.1489
▁subparagraphs	-12.149
▁impressed	-12.149
PD	-12.1491
NO	-12.1492
flow	-12.1493
▁beast	-12.1494
▁highway	-12.1494
▁Thor	-12.1495
▁Tro	-12.1497
▁glory	-12.1497
▁Exploitation	-12.1497
▁Either	-12.1498
▁compelled	-12.1498
eastern	-12.15
▁liberation	-12.1501
▁surge	-12.1504
▁Summer	-12.1504
▁devise	-12.1505
▁236	-12.1509
etic	-12.151
bas	-12.151
▁Ce	-12.1513
put	-12.1513
▁Overseas	-12.1516
▁speaks	-12.1516
▁comp	-12.1517
▁BC	-12.1518
▁murderer	-12.1522
▁FARDC	-12.1522
▁Expenditure	-12.1523
▁schedules	-12.1523
RY	-12.1525
ient	-12.1527
part	-12.1528
Annex	-12.1528
▁valley	-12.1528
wel	-12.1529
▁Sur	-12.1532
▁leak	-12.1533
▁internet	-12.1535
▁Windows	-12.1536
▁GR	-12.1538
▁Oliver	-12.1538
▁sealed	-12.1539
.2.2	-12.1541
▁dwellings	-12.1543
▁alright	-12.1545
cycle	-12.1545
▁immense	-12.1547
▁heed	-12.1547
▁Observations	-12.1549
▁grain	-12.1556
elli	-12.1556
▁Emma	-12.1557
▁Migrants	-12.1559
▁observing	-12.156
▁warming	-12.1571
town	-12.1572
▁Signs	-12.1573
LS	-12.1574
▁205	-12.1574
▁UNMOVIC	-12.1574
▁deter	-12.1577
▁2018	-12.1577
▁rigorous	-12.1579
▁Disabled	-12.1579
▁surrounded	-12.1581
▁Officials	-12.1586
▁folk	-12.1587
▁cleansing	-12.1591
tern	-12.1593
▁frank	-12.1596
▁917	-12.1598
▁LDC	-12.1598
bstaining	-12.1599
▁Mur	-12.16
▁204	-12.1602
▁diagnosis	-12.1603
▁safely	-12.1604
▁fuckin	-12.1608
▁affiliation	-12.1609
▁contacted	-12.161
▁bug	-12.1614
▁screw	-12.1615
▁medal	-12.1619
▁blessed	-12.1624
▁Answer	-12.1627
▁gifts	-12.163
▁Consultation	-12.1635
▁atrocities	-12.1635
▁caring	-12.1636
▁Jason	-12.1637
ser	-12.1638
▁impediments	-12.1638
▁timeliness	-12.1638
▁Obviously	-12.164
▁disadvantage	-12.164
▁grades	-12.1641
▁preferably	-12.1642
▁th	-12.1643
▁afterwards	-12.1644
▁Geo	-12.1644
▁Technologies	-12.1644
▁auction	-12.1645
financing	-12.1649
▁Coast	-12.1649
lum	-12.165
▁engineer	-12.1654
▁reminds	-12.1655
▁Castle	-12.1658
▁Recognition	-12.166
lation	-12.1661
▁encompasses	-12.1661
isi	-12.1663
lt	-12.1664
▁Zi	-12.1665
▁clashes	-12.1666
Eastern	-12.1669
▁exhaustive	-12.1669
▁horses	-12.1671
▁Prev	-12.1672
▁probability	-12.1673
▁Preliminary	-12.1677
▁sweetheart	-12.1677
▁Darussalam	-12.1678
▁shelf	-12.168
▁2.8	-12.1682
▁Dissemination	-12.1683
FP	-12.1685
▁finalizing	-12.1686
TT	-12.1686
▁Certificate	-12.1688
▁hook	-12.1688
▁messenger	-12.1688
▁Gre	-12.1688
▁bedroom	-12.169
▁eco	-12.1691
▁Pete	-12.1692
▁tariffs	-12.1694
aq	-12.1694
▁tended	-12.1694
▁ed	-12.1697
▁Lower	-12.1701
▁265	-12.1702
sey	-12.1704
▁swim	-12.1709
ency	-12.1711
▁cloud	-12.1713
▁Def	-12.1713
▁Malvinas	-12.1714
▁codification	-12.1714
▁seal	-12.1715
▁mum	-12.1717
▁colleague	-12.1717
▁factions	-12.1724
▁TER	-12.1725
▁Mil	-12.1725
mic	-12.1725
▁ICTY	-12.1727
-2000	-12.1729
ult	-12.173
kes	-12.1732
▁denying	-12.1733
▁CAN	-12.1733
▁openly	-12.1735
▁Grenada	-12.1736
▁chastisement	-12.1736
▁attainable	-12.1738
▁liberal	-12.1739
▁confronting	-12.1743
▁Changes	-12.1743
fri	-12.1744
▁liar	-12.1747
▁Stocks	-12.1747
ome	-12.1748
WG	-12.1749
▁discontinued	-12.1749
VA	-12.1751
▁malfunction	-12.1753
▁Half	-12.1754
▁naval	-12.1756
▁Proceedings	-12.1757
step	-12.1758
▁Narcotics	-12.1759
▁Rican	-12.176
▁Leo	-12.176
▁fortune	-12.176
▁strongest	-12.1763
▁Problems	-12.1763
▁shed	-12.1764
HR	-12.1767
▁scare	-12.1767
▁Facebook	-12.1769
▁summaries	-12.1769
aud	-12.177
▁crossings	-12.177
▁carriers	-12.1771
▁affirm	-12.1775
▁click	-12.1777
▁Festival	-12.1778
▁participates	-12.1778
cing	-12.1778
▁lectures	-12.1779
▁Concerned	-12.1779
▁junior	-12.1781
▁discount	-12.1782
▁flame	-12.1783
grad	-12.1783
▁correctional	-12.1783
▁boxes	-12.1783
▁Sto	-12.1786
▁listened	-12.1786
▁complain	-12.1787
▁uncertain	-12.1789
▁Increasing	-12.1789
▁tracing	-12.179
▁accrued	-12.179
mp	-12.1791
▁Dark	-12.1791
▁CEO	-12.1792
▁Aye	-12.1792
▁contributor	-12.1793
▁treating	-12.1794
▁vendor	-12.1794
▁likelihood	-12.1796
▁Confederation	-12.1798
▁upward	-12.1798
▁undergoing	-12.1799
▁Different	-12.1799
▁Modern	-12.1799
▁TC	-12.18
ates	-12.18
▁illustrate	-12.1801
▁Ste	-12.1801
▁distant	-12.1801
▁chat	-12.1804
▁rating	-12.1805
▁253	-12.1805
▁understands	-12.1808
▁Nay	-12.1809
lim	-12.1809
▁substantiated	-12.1811
▁indices	-12.1811
▁doubled	-12.1812
▁holidays	-12.1813
▁embark	-12.1814
▁verses	-12.1815
key	-12.1821
▁counts	-12.1822
bat	-12.1823
▁Presidents	-12.1824
▁Israelis	-12.1825
Level	-12.1826
▁silly	-12.1827
▁Spring	-12.183
▁expose	-12.1831
▁checkpoints	-12.1832
▁Danube	-12.1832
▁defendants	-12.1832
▁drinks	-12.1832
▁1959	-12.184
▁extraction	-12.1841
▁exciting	-12.1847
ender	-12.1848
▁Learning	-12.1849
▁unconditional	-12.185
▁brown	-12.1853
▁nationalities	-12.1855
▁Grenadines	-12.186
▁stem	-12.186
▁ratios	-12.1861
Pro	-12.1863
▁pursuance	-12.1868
▁mask	-12.1872
▁cannabis	-12.1874
▁graduation	-12.1874
▁rebuilding	-12.1878
▁Seychelles	-12.1881
▁SEA	-12.1882
▁delegated	-12.1883
▁Th	-12.1883
ico	-12.1889
▁bags	-12.189
▁condolences	-12.1891
▁poet	-12.1893
▁preferences	-12.1894
▁Ann	-12.1895
ifying	-12.1895
rit	-12.1895
multidimensional	-12.1901
▁vii	-12.1901
▁shield	-12.1903
▁Atlas	-12.1906
pin	-12.1907
ike	-12.1907
hl	-12.1907
▁199	-12.1907
▁wheels	-12.1908
ware	-12.1914
▁amnesty	-12.1915
iki	-12.1918
top	-12.1919
▁mighty	-12.192
▁fabric	-12.192
▁destiny	-12.1922
▁breathing	-12.1923
▁truthful	-12.1923
▁Accra	-12.1927
▁Pri	-12.1929
▁folks	-12.1929
lands	-12.193
ERS	-12.193
▁1957	-12.1931
▁Took	-12.1934
Government	-12.1935
▁shopping	-12.1937
ago	-12.1937
▁pronounced	-12.1937
▁ASSEMBLY	-12.1939
▁seeds	-12.1939
▁Available	-12.194
▁Improvement	-12.1942
▁Mun	-12.1943
▁warehouse	-12.1943
▁Yahweh	-12.1944
ista	-12.1944
▁winner	-12.1947
ime	-12.1948
▁Hunt	-12.1949
▁Continental	-12.1949
▁stringent	-12.195
▁exported	-12.1951
▁academia	-12.1952
assessment	-12.1954
▁Contract	-12.1954
▁strain	-12.1954
▁socioeconomic	-12.1956
▁Sc	-12.1957
▁inherit	-12.1958
▁receptacles	-12.1958
▁organisms	-12.1959
VE	-12.1961
▁264	-12.1961
▁thirtieth	-12.1962
▁multisectoral	-12.1963
▁Lisa	-12.1964
▁Course	-12.1964
▁predictability	-12.1964
▁allies	-12.1968
▁rebuild	-12.1968
▁CA	-12.1969
▁calibration	-12.1969
▁Dave	-12.197
▁Cell	-12.1971
▁cheese	-12.1972
▁mile	-12.1972
▁approving	-12.1973
▁triennial	-12.1973
▁ACTIVITIES	-12.1975
▁stakeholder	-12.1975
yr	-12.1975
▁experiments	-12.1978
▁bias	-12.1979
tim	-12.1983
▁OL	-12.1984
fully	-12.1984
▁Zo	-12.1985
umi	-12.199
▁remedial	-12.1995
▁contested	-12.1995
PM	-12.1996
▁spill	-12.1996
▁Fi	-12.1997
▁castle	-12.2
keeper	-12.2001
▁Sol	-12.2001
▁Tehran	-12.2001
▁Bon	-12.2003
▁sec	-12.2004
▁Florida	-12.2005
▁Estimated	-12.2006
▁Authorities	-12.2008
AND	-12.2015
▁censuses	-12.2015
▁bride	-12.2016
▁verbatim	-12.2023
▁232	-12.2023
uf	-12.2024
▁hectares	-12.2024
▁defeated	-12.2025
▁Ugh	-12.2025
▁dependency	-12.2025
.1.2	-12.2027
▁insisted	-12.2028
▁repercussions	-12.2028
▁dominated	-12.203
▁Cayman	-12.2031
ATE	-12.2035
▁delicate	-12.2035
▁Ap	-12.2035
isa	-12.2038
LD	-12.204
▁Carter	-12.2041
▁hurts	-12.2043
food	-12.2043
▁Includes	-12.2043
gent	-12.2046
▁Drop	-12.2046
▁catalytic	-12.2046
▁Eli	-12.2047
▁Bin	-12.2047
tat	-12.2047
▁recite	-12.2052
▁communal	-12.2055
▁neglected	-12.2055
▁homeland	-12.2055
▁stepped	-12.2055
▁clarifying	-12.2056
▁Srpska	-12.2056
▁negotiable	-12.2058
▁rush	-12.2059
cer	-12.2059
▁garage	-12.206
▁Form	-12.2061
▁breaks	-12.2065
▁honoured	-12.2065
▁209	-12.2066
▁Gil	-12.2066
▁Mutual	-12.2066
▁importing	-12.2069
mate	-12.2069
▁Fat	-12.207
▁warfare	-12.207
▁0.3	-12.2073
.3.3	-12.2075
▁cl	-12.2076
dem	-12.2078
iling	-12.2079
▁Princess	-12.208
▁droit	-12.2082
▁confess	-12.2082
▁dwelling	-12.2084
▁Cur	-12.2088
▁evidenced	-12.2088
▁reside	-12.2088
doers	-12.2088
▁SG	-12.2088
▁selecting	-12.2089
▁coefficient	-12.2092
▁Chu	-12.2093
DH	-12.2096
▁meters	-12.2096
▁unanimous	-12.2096
▁Cu	-12.2097
OD	-12.2098
▁blessings	-12.2098
▁1947	-12.2098
▁Josh	-12.2099
comp	-12.21
▁inspiration	-12.2101
▁concessions	-12.2101
▁3.6	-12.2101
ular	-12.2102
▁Micronesia	-12.2103
▁definitive	-12.2103
▁fog	-12.2103
▁TEM	-12.2105
▁affirms	-12.2107
▁variation	-12.2107
▁Lin	-12.2111
▁Observers	-12.2114
generating	-12.2116
▁beating	-12.2116
▁everyday	-12.2117
▁Howard	-12.2117
IX	-12.2118
▁drama	-12.2119
evi	-12.2119
▁presumed	-12.2121
▁irrigation	-12.2122
▁discourage	-12.2124
▁Tam	-12.2127
holders	-12.2129
▁195	-12.2129
▁simultaneous	-12.2135
▁downward	-12.2136
imi	-12.2136
[...]
